parameter b_1 = 16'b0000001100101101;
parameter b_2 = 16'b1111111010111110;
parameter b_3 = 16'b0000000010100000;
parameter b_4 = 16'b1111100101000010;
parameter b_5 = 16'b1111111011101010;
parameter b_6 = 16'b1111011001101101;
parameter b_7 = 16'b1111111111100000;
parameter b_8 = 16'b1111110100101000;
parameter b_9 = 16'b0000000011011001;
parameter b_10 = 16'b1111010010111100;
parameter b_11 = 16'b1111100011001010;
parameter b_12 = 16'b1111011101010010;
parameter b_13 = 16'b1111100100100110;
parameter b_14 = 16'b1111110010101111;
parameter b_15 = 16'b1111110111000000;
parameter b_16 = 16'b1111011100110000;
