parameter b_1 = 16'b0000010110000110;
parameter b_2 = 16'b1111111110101111;
parameter b_3 = 16'b1111101000100100;
parameter b_4 = 16'b1111111000100110;
parameter b_5 = 16'b1111101011110100;
parameter b_6 = 16'b1111101111011000;
parameter b_7 = 16'b1111100111001111;
parameter b_8 = 16'b1111110001100001;
parameter b_9 = 16'b1111110110000010;
parameter b_10 = 16'b1111111110001010;
parameter b_11 = 16'b0000001110010110;
parameter b_12 = 16'b1111111011100111;
parameter b_13 = 16'b1111110100100000;
parameter b_14 = 16'b0000001011111100;
parameter b_15 = 16'b0000010101111110;
parameter b_16 = 16'b1111111101111011;
parameter b_17 = 16'b0000000100100110;
parameter b_18 = 16'b0000000011011111;
parameter b_19 = 16'b0000011000101101;
parameter b_20 = 16'b0000000100011111;
parameter b_21 = 16'b0000010000110000;
parameter b_22 = 16'b0000000001100000;
parameter b_23 = 16'b1111110110101010;
parameter b_24 = 16'b0000010000100011;
parameter b_25 = 16'b0000010000011010;
parameter b_26 = 16'b1111110010100110;
parameter b_27 = 16'b1111101101100011;
parameter b_28 = 16'b0000001010001111;
parameter b_29 = 16'b0000001010011111;
parameter b_30 = 16'b1111111001011100;
parameter b_31 = 16'b0000001010011100;
parameter b_32 = 16'b1111110110010000;
parameter b_33 = 16'b1111101110010110;
parameter b_34 = 16'b1111110001001101;
parameter b_35 = 16'b0000000100011000;
parameter b_36 = 16'b1111111100000110;
parameter b_37 = 16'b1111110100000101;
parameter b_38 = 16'b1111110001101001;
parameter b_39 = 16'b1111110001111100;
parameter b_40 = 16'b1111111111000111;
parameter b_41 = 16'b1111110101001100;
parameter b_42 = 16'b0000000000001010;
parameter b_43 = 16'b0000000111001001;
parameter b_44 = 16'b1111110110000001;
parameter b_45 = 16'b1111110011011111;
parameter b_46 = 16'b1111110100101001;
parameter b_47 = 16'b1111111111001100;
parameter b_48 = 16'b1111111010101110;
parameter b_49 = 16'b1111111010011011;
parameter b_50 = 16'b1111110100110110;
parameter b_51 = 16'b1111110011100111;
parameter b_52 = 16'b1111111001110110;
parameter b_53 = 16'b1111110001101010;
parameter b_54 = 16'b0000010011100110;
parameter b_55 = 16'b0000000100011000;
parameter b_56 = 16'b0000000001110000;
parameter b_57 = 16'b0000000100100011;
parameter b_58 = 16'b1111110110100100;
parameter b_59 = 16'b0000011000011000;
parameter b_60 = 16'b1111111011001010;
parameter b_61 = 16'b1111101100000000;
parameter b_62 = 16'b1111111000001111;
parameter b_63 = 16'b1111101001010000;
parameter b_64 = 16'b0000001100100011;
parameter b_65 = 16'b1111110111000100;
parameter b_66 = 16'b1111110010011011;
parameter b_67 = 16'b1111111000111111;
parameter b_68 = 16'b1111111000110111;
parameter b_69 = 16'b1111111001001101;
parameter b_70 = 16'b1111110000010100;
parameter b_71 = 16'b1111110001101011;
parameter b_72 = 16'b0000010000000111;
parameter b_73 = 16'b0000001001100011;
parameter b_74 = 16'b1111100011111111;
parameter b_75 = 16'b1111111000110100;
parameter b_76 = 16'b0000010011000111;
parameter b_77 = 16'b0000001000111100;
parameter b_78 = 16'b1111111000111101;
parameter b_79 = 16'b1111110000011110;
parameter b_80 = 16'b0000001001101110;
parameter b_81 = 16'b1111111110101110;
parameter b_82 = 16'b0000001011000100;
parameter b_83 = 16'b0000001010000000;
parameter b_84 = 16'b0000000010010010;
parameter b_85 = 16'b0000000111101010;
parameter b_86 = 16'b0000000110110001;
parameter b_87 = 16'b0000001111000110;
parameter b_88 = 16'b0000001111101010;
parameter b_89 = 16'b1111100100100111;
parameter b_90 = 16'b0000000101110101;
parameter b_91 = 16'b1111110111000001;
parameter b_92 = 16'b0000010000110011;
parameter b_93 = 16'b0000001010011110;
parameter b_94 = 16'b0000001100101000;
parameter b_95 = 16'b1111101101110111;
parameter b_96 = 16'b0000001101010100;
parameter b_97 = 16'b1111111011110101;
parameter b_98 = 16'b1111111010110101;
parameter b_99 = 16'b0000010100100001;
parameter b_100 = 16'b1111110110100000;
parameter b_101 = 16'b1111111110100101;
parameter b_102 = 16'b1111110011101000;
parameter b_103 = 16'b0000010101001110;
parameter b_104 = 16'b0000100010100011;
parameter b_105 = 16'b1111110110010101;
parameter b_106 = 16'b0000000100001001;
parameter b_107 = 16'b1111110100000000;
parameter b_108 = 16'b0000011011100001;
parameter b_109 = 16'b0000001010000010;
parameter b_110 = 16'b0000001000111001;
parameter b_111 = 16'b1111110111100101;
parameter b_112 = 16'b0000000011010001;
parameter b_113 = 16'b0000010010100010;
parameter b_114 = 16'b1111111111000000;
parameter b_115 = 16'b0000000111101011;
parameter b_116 = 16'b1111111100111011;
parameter b_117 = 16'b0000001010010101;
parameter b_118 = 16'b0000000010000100;
parameter b_119 = 16'b0000000000110100;
parameter b_120 = 16'b0000000000010101;
