parameter b_1 = 16'b0000011001110101;
parameter b_2 = 16'b0000100011000100;
parameter b_3 = 16'b1111110001111000;
parameter b_4 = 16'b1111111000000011;
parameter b_5 = 16'b0000101011000010;
parameter b_6 = 16'b1111110001100100;
parameter b_7 = 16'b0000010010001111;
parameter b_8 = 16'b1111100011101000;
parameter b_9 = 16'b1111110011110010;
parameter b_10 = 16'b1111110010110110;
parameter b_11 = 16'b0000010001011010;
parameter b_12 = 16'b0000001110001010;
parameter b_13 = 16'b0000001110101000;
parameter b_14 = 16'b1111110010000011;
parameter b_15 = 16'b1111101111001001;
parameter b_16 = 16'b0000001100000111;
parameter b_17 = 16'b0000100000000001;
parameter b_18 = 16'b1111011111001000;
parameter b_19 = 16'b0000010110000000;
parameter b_20 = 16'b1111100010101011;
parameter b_21 = 16'b1111110111100010;
parameter b_22 = 16'b1111111101110001;
parameter b_23 = 16'b0000001001001010;
parameter b_24 = 16'b1111101000000111;
parameter b_25 = 16'b0000011010010011;
parameter b_26 = 16'b0000000011001100;
parameter b_27 = 16'b1111101110011110;
parameter b_28 = 16'b0000011010111110;
parameter b_29 = 16'b0000001001010111;
parameter b_30 = 16'b0000001001010001;
parameter b_31 = 16'b0000101000000111;
parameter b_32 = 16'b0000010111110100;
parameter b_33 = 16'b1111101111000111;
parameter b_34 = 16'b1111111001001011;
parameter b_35 = 16'b1111100100001010;
parameter b_36 = 16'b1111110011010010;
parameter b_37 = 16'b0000000100001111;
parameter b_38 = 16'b1111011111101011;
parameter b_39 = 16'b1111111111101100;
parameter b_40 = 16'b1111110110000110;
parameter b_41 = 16'b0000001001010110;
parameter b_42 = 16'b0000000010011111;
parameter b_43 = 16'b1111111111010101;
parameter b_44 = 16'b0000010010101010;
parameter b_45 = 16'b0000100111000011;
parameter b_46 = 16'b1111101101011011;
parameter b_47 = 16'b0000011110111001;
parameter b_48 = 16'b1111111110101100;
parameter b_49 = 16'b1111111011011010;
parameter b_50 = 16'b0000000111001101;
parameter b_51 = 16'b1111100011010001;
parameter b_52 = 16'b0000010100101011;
parameter b_53 = 16'b0000011010100110;
parameter b_54 = 16'b1111110110101010;
parameter b_55 = 16'b1111110100010000;
parameter b_56 = 16'b0000100001001000;
parameter b_57 = 16'b0000000011000101;
parameter b_58 = 16'b1111111011000001;
parameter b_59 = 16'b0000000101010100;
parameter b_60 = 16'b0000010001001000;
parameter b_61 = 16'b1111101101110000;
parameter b_62 = 16'b0000010010110001;
parameter b_63 = 16'b0000010011100011;
parameter b_64 = 16'b1111111111010100;
parameter b_65 = 16'b1111011001100011;
parameter b_66 = 16'b1111110110100110;
parameter b_67 = 16'b0000011001110111;
parameter b_68 = 16'b0000010000110110;
parameter b_69 = 16'b1111111100111010;
parameter b_70 = 16'b1111101111100010;
parameter b_71 = 16'b1111110111101010;
parameter b_72 = 16'b1111110111101110;
parameter b_73 = 16'b1111111010101110;
parameter b_74 = 16'b0000000110011011;
parameter b_75 = 16'b1111101110100001;
parameter b_76 = 16'b0000000100011100;
parameter b_77 = 16'b0000010010010000;
parameter b_78 = 16'b1111100101010111;
parameter b_79 = 16'b0000010100111010;
parameter b_80 = 16'b1111110000011110;
parameter b_81 = 16'b1111110011011000;
parameter b_82 = 16'b0000001010100111;
parameter b_83 = 16'b0000010111011000;
parameter b_84 = 16'b0000010000110010;
