parameter b_1 = 16'b0000011001000101;
parameter b_2 = 16'b1111100101111001;
parameter b_3 = 16'b0000000001101010;
parameter b_4 = 16'b1111100111010010;
parameter b_5 = 16'b1111110001110001;
parameter b_6 = 16'b1111110100100000;
parameter b_7 = 16'b1111011010010100;
parameter b_8 = 16'b1111100001110001;
parameter b_9 = 16'b0000101110000110;
parameter b_10 = 16'b0000000101111101;
