MEMORY_INITIALIZATION_RADIX=2;
MEMORY_INITIALIZATION_VECTOR=
111010001110110011111111110011100000111000001010,
000010111101001100010111111100101110011100011001,
000000000000000000010011000010101110000100100101,
000011010001110000001110111100101111100100000100,
111100000001111111011011111010011111010000101101,
000110001100011011111100110100100010011000010001,
000101011101101111110101111010100010100100100010,
000010110010001000011100000101110000111000111100,
000101000011000011100111000000100001101100101000,
111011000001110011000100111001011111001100111001,
001000111110100111100010110011000001000000100110,
001010000001111100011011000001010001100000000100,
001110100001111000110111001001000010000111111001,
001100000011000000100000000000110001001100011101,
001011110000001111110100111000111110011000010110,
111100111111110100001010000010011110000011110111,
000000000010011000001010000101110010000011101010,
000000110000100000001110010011010001111111100010,
001010010001000000011011000111010011000111100001,
001100110000011100100011110110110000100011001001,
110011010001011111010011001101011111110011010000,
110100100000100111011110010001110010000011011101,
000000110001001000011001001101000001010011010110,
111001000001000000010110000010000000111110111101,
111001011101100000010010110101101111101111001111;