MEMORY_INITIALIZATION_RADIX=2;
MEMORY_INITIALIZATION_VECTOR=
000010000000011100001010000000100000011111110001111100011111100111110000000011001111001111110101000100010000010000001000000000100000000100000000111101111110011011111101111100101110011000000011111100011110011111110001111010011110100000000100111101111111101011110111000001110000010011101011111110000001001011101111000011110000100000000010000001100000010000000110000101010000011100001101111111010001000111101011000011011111000111111011000000010000101000000100000100001111100111110001111101110000000100001110000001101111101011101001111010111111011011110001111110101111000011110010111111001111110100001001000110101111111111101100111100011111111111111110111111001111010111111101111101001111110111110011000010101111010100000000111111000000101100000000000001010000000011111101,
111111000000010000001111000011100000000111100010111111000000100100000000000011111111101111101001111111111111100011111001000001110000101100001110111010001111101111110001111111111111111111111011111100011101101011111011111010111110011011011000111101010000011011110011111111010000010011110010111110110000011011111101111011001111110100010100111111010000100000000110111110010000001100000100000010010000110011100100111011111110100000011101111110110001001100000011000011011111100100000011111011000000011011101001000010110000100011110001111101001111000111101100111101001110111111110100111101011111010111110100000010011111001111101001111100101110110111110011111110101111010011111011111111101111110111111100000001001111000111110101000001000000010100010011000010110000011111110000,
111100101111111011111001000011111111100111111110000011000000001000001111000001110000000111111000111100100000000111111010111101111111001000000011111011010000111000000100000000000000001011110110000000100000000111111001000100110000100011100000111111011111110111101001111101101110110111110110000001111111011011111010110100101110110100001111111110111111111111110110111100011111011000000000000011111111010000000101111001111111010000010000000010110000000000000111111110001111011000000011111001111111101011111011111111111110111011110011111111000000000111101111000000001111100011111111000000011111110000001010111100011111010011110110111000110000011111110110000101011111011111110001000001010000010011111010000010110000001100001110000000000000001100001000111111001111111111011011,
111010001111011111100111111111111111110111111011000000010001000100000101000010000000110100000101111111110000001011111110000001001111100111101111000010010001001100001111000100011111110111110100000000100001100100000010001001100001011011111100111111000000010011110001000011010000001100000101000101011111101000001000111111110000111100001101111111101111111100000111000000011111110000000011000010101111000100001000111111101111100011111100111100001110110100000000111100111111011111111101000001100000100100000000111101111111110011111011000011010000101011110100111011101111001100000101000011010001001000010101000010010001011111111111111110110000010100000100000010010000001011110010111111110000100111111100000000101111110000010101111100111111110000000001000000001111111111101001,
111111101111010111110111111011111111100000001010000010110000001111111110000101010000100100010101000011010000111100000001000010010000011111111000000001001111111100000110000100110000111111111101111110000000110100000110000011100000001100001010111001011111111011101100000010111111110000000001111111011111111000001110000011000001101111110010111111000000100000000110000101110000110100000010111100100000001011111111000010110000011011101100111010001111011000000011000000011111010011100011000100100001100000001100000011010000011000000011000010001111100111111000111101111111111000010000111101110000110111110111000000100000001111111101111110010000000111111011000011110000100111111010111101001111010111111011111000001111101111111100111011101111110100001001000010011111110011110001,
000000100000101011111110111011010000001000001001000001001111110100000001111100110000010100000001000100000000100000001001000100000000100000000101111111001111110000000111000001101111111111110111111010101110110000001010000000000000001011100000000010001111110000001101111101100000010111111101000000101111101111101111000001101111010000000111000010011110111100000010111101101111011100011001000000111111101000011001000010100000001111101011111010100000001011110010000011001110110111110010000100010000101000010000000001000001000011011101111110001111010111111011111011011111110011110100000100000000100011111100001001000001001111111110000000010000011100010011000101100001001011111101111110011111010111110111000000101110101111111101000000000000001100001110000010100000110000010000,
000111010000000000011110111110000000101111111001000011010000111000000001111100001111111000001001111110000000101000001001000100010000100011110111000010000001000011111001000011001111101100000101111110010001100011111111000001100001000111110001111111110000001000010110000000110000010111110110111001101101101111111010110101001110100011110001000010101111001011110001110100111110100000010000111001101111001100000010000100011111010011101001111101001111101000000011111100101110101011110101111101110000100011111100000000100000110111110001111010111111111011101110111110011110100111111101111100011110110011110100110111001111000000000010000000110000000011111101000100100001000011110011000010000000111111110001111111001111111100000111000010110000111000001110111100001111110000010001,
000010010000001000100100000010010001011111010110000100110000100000000101111100100000100000011100111001011111100011100110111010111111000011110110000001010000000111110110111100001111101011110111000000100010011011111000000010110001101000010010111110011111001011111001000100110000010011101101111101110000010000000111111011111111110111100100000001011110100111101000110011101110101011111110110111111111000111110101000100101111011111110101111011101111010000000110000010101111100011101011111001111111100011100111000000011110111011100111111010011110110011011110111011111110001111111110000100000000001100000001111111100000100000000001000100000001101000000010000111111111111111111100111111000001000111111001111110100000001100001110000100101111111000010011111001100000011100010000,
000000000000000000001001111111110000010011100010000001100000101011101000000000001111001000011111000001110000011100001111111110100000000011101010000101100000001000011110000000000000010111111001000000100001100111111001000001100000100100001110000001111111111011111101000110001111100111111011000011010000101100000101000111000001000111110111000011101111101111110101110010011111101100010010111111000000111000000101000010010000000000000111111100100000100100000011000100110000011011101100111110100000000011110011111100101110110111111110111001011110010011100001111001111110000000000100000010000000101000000110000011010000111000000010000001010001010111111111000010100000010100001100111100011111010111111010111001101111000111111010000010011111110100010100111100100000010000000111,
111100101111111011111000111111011111011011110101111101111111110011101111110100111110010000011010000000000000111000000110000101100001110011111001000011101111101000010101000100010001110111111000111100001101001011110011110100011101110100000010111101011110110011111001000001001110111111100111111111000001001011110110000100000000000011111001001000010000110100001110111110000000110000011001000001001111111100000000111101010000010100001000000000110001010100000100000111000000010100000001000100000000001000000011111111101111000000010001110110011110011011110110111100111110101000001100111111011111111111111111111111110000111100000011000000000000010111110011000000000000001000000001111110010000001000001000111110110000101111101100000110010000100000011011111111110000011111111001,
111010111111101111111000111101001110100100000100111110111111000000001001000001001111100011111101000100010000101100010011000011010001000100000001000010001111111111111011111101011110111100001110111100110001101000000110000010100000011111101000000110001111111100001110111010111111110000001110111011011111100011100111000001101111000011110011111000101110011011100010111101101101011111111101001001000000100000010000000000010001010000001100000011100000100100010010000010111111100111110011000010110000101100011000111100010000000111110100111101000000000100000001000010010000001111110110111101111111010111110000000010110000000000000000000010010001000100001000111110101111111100011101111110111111011111110011000001001111100100000100111011010000010011110111000000011111111000000011,
000100100000010111111101111101111111111100000010111110011111101011111101111101101110110000000001111111101111100111111111000010100000000000000001111111010000000011111000111100111111010000010110000000100001011000001001111111000001001100001010000110111111010100011101111111110000110100010110111011111110111011110111111000011110101111010110110010001110011111011010000000101110000111101110001000111111100000100000000000000001001011111110000011100000001000010001000100000000001111111011000001011111010100010110000001110001011011101010111101001111110011110101000100000000011111110101111101010000000111111011110111111110101011101101000111110000100100000001111000000000100100011100000000100000010111110010000000001111010011111010111100101111000011100110111110001111100000001111,
000101100000000100011101000000000001101100000001111000110000001011100100111011011110000000000111111000111110011111101100110101101111001111110001000000001111001111110001111011001110000111111001111111100000100011111110111100010000000000010001000111011111111100001111111101000000011000000011000100000001111111111100000000110001001111110001101110101110000011010101111101111101000111111000000100100000100000010010111111010000100011110010000001110001101000000011000101111111110100000101111100011111100011111011000010010000111011100100111101000000000100000000000011100000010111110001000000000001110000000010000000110001000011111100000111111111111000000011111000111111110100011011111110111110100111101100111111101110110111110011111110111110100111111001110110111110100100010101,
000011001111001100010001000000000001010111111100111001011110110011101101110101011101101111111101000001100001101000000111000010100000100111110000000000100000000000001000111100000000001111111010111110111101010111111110110111101110111111111001000011011111111100001101111101110000111011110000111110000001100000001000001000110000011111111111111001101110011111010101111001011101100000001001111111010000011111111101111101110000001111111011000101010001110000001010000001110000111000011001111011101111101011111010000011111111111111110000111111101111011100001110000101000001000111111100111111010001010100000100000100000000000011111010000001011111101000000010110110000000001100010111000000001111000100000000111001001111111011110110000011101111001111110111110111001111100000010011,
111101110000011011110000111111000000110111111001110100101101101011100111111101001101110111011010000001010000010000000100000110110000011011111010000011111111100100011100111111110001110011111011111010101110010111101001111110101111010011011100111111110000010100001111000001110000111011111001111100001110110011101110111010001110111111111100111111101110111011110001110111101110100100011010000001111111011111111011111111011111010011111100000001010000010100001010111110100000001100001100111000011111010111101010000000101110100011101111000000001111101100000101000111100000011011101111111101001111000111111111111011001111100111111111000000101111011111110110111001111110100100000110000011110001001100001110000011010000110000000000000101010000110100010000111011000000010000011011,
111011111111011011101101111110011111010111100111000000011111110000001001000110010000001011101011000100110001001000001001000001110000110100010000000000011111111111110101000100000000001000000010000001110000110100001001000001010000110100001100111101111111111111110001111111101111010011111110111101001111011011111001111110011111010011111001111100101111100100000000000011011111100111100001000000101111110111110100111001001111011000011100000100110000001100001011111100011111100000010101000010100000001000000001000001001111000111110011000011100000111100010010000100110000001111110000111110001110011011110010111111111111111111111110000001011111010111111000111100101111100000000000111111001111011111101101111111010000000011111110000001011111101000000010000001011111010011100010,
111100010000100111101110111101101111000011110000111011101110100011011101111111101111101111110101111011101110110111110111000001101111000000000011111010111111010111101001000001001110110111111011000000110000101000001000111110110000001100001101111110101111100111111110111110101111011000001000111011000000100011110101111110101111101011111000111110111111101000000101000111101111101111100001000100110000001100001011111011010000011000011011000100010000001111110000111001100000011000100010000010101111100000011011111111000000010000000101111111000000111000000111000011010000010011101110111110000001010011110011000011011111101011101101111010011111001011110001111101101110101111111111111011011111010100000011111100111110111111111000111010111111010000000101000001101111001011100010,
000011000000001000010100000000010000001011111101111001001101100111100001111001001110000111011101111001111110111011011010110100011110010111100011111001011111010111110001111101001110010111011111000000101111001011110011111110001111111111110111000010101111100100001101111000011111111100001100000010010001001100001110000101000000101011111001000001001111011000010010000010110000010111001111000100101111011100000001111100010000110000001100000101110001000011111010111000111111001000010110000010101111101100000010111100000001011000000010000001100001001011111101000001110000101000001000000000100001100011111111000100000000000000000000111010011110101011110111000000001110000111111011111011011110111111101001000001011111101011110110111000011110101111101001000010101110011111011100,
000101001111101100010010111111000001101100000110111101111110101111110100000001001111110111101001000000010001010000001101111111100000000111101111000000001111101111111101111011111111100111110110111010001101111100000011111111001111011111101101000101101110111000000110111110000000101100001011000011000000110100000001000010001111011100000100111101011111010000000110000011000000100011010101000000101111011011110111111110100001000111111101000001011111100011111101110010101111000100010110000010010000001100010011000001110000101011110111000001100000111000000000111110100000000000001100111111111111111100000100000001100000001000001010111100101111000111101110111111011110100011100111000010010000001111010010111101111101111100001101111001111111010111111001000000001111010011110010,
000010100000000011111010111101000000110100000001000011000000010000000110000101000000100100001111111111110000001000011000000001110000110111110000000010100000101000000110000010100000111000001001111111000000000011101110000010111111001111111111000010010000010111111111111111100000100000001101111101011100111011100100110100001111001111110010111011101110110011111111000100001111010011011011111111001111101111101011111110010000000100000110111111001111110011111101111010001111101011111010111110101111001100000000111100101111110011101101000100110000001100000101111110110000011000010111111111001101101111111101111001111111101011110110111110000000011011111010111111111111100111011101000101100000001111110100110100011111010100011001111100011111111111101001111011111110110100001111,
111110100000100100000100111111101111100111110110111110100000110011111110000111101111100111111000000000111111110011111110111100011111001000000110000100111111100000010111000010000000111100000010111111111111111000001011111111000000001111111101111111101111011111110100000101010000001011100100111101001111101111111100111110011111110000000101000110100000110000001101000001110000101100010111111010101110101100000110000010111111000011100010000011001110010100010000111110101111111000000011000001110000001000000011111001111111101000000000000000100001100100010011000010010001011011111011000000011111110011101111111110111111101111110000111100011110101000000110000011100000010111101001111100101111000111111001000001111111010111110101000010111111101011111101111111000000011000000101,
111100010000001111110010111111101111111111110100111000001110000011111100111100111111111011100100110111111110000111101101111110001110010111011110000100011111101100001110000101100000001111110110111101001111001000001011000000001111111000000100111011101111011111101101000000011110100111100000000000000000101000000100111111011111111011111111000110110000010000010000111110010000111100001110111101111111101111101110000100011111001111110001000001111110101100010010000001101111011011110001000010100000001000000101111101001111110000000010000010100000101111111111000000100000110100001100000001010001000100000001000110100000110011111111111111111110100100000010000000010000110011011110000001011111110100000011000001111111101011110100000011101111100100010000000100000000010000001011,
000000100000010011111101111111101111110100000001111011011111001011110000111101111110101111101011111001101111111111101101111110101111011011011110111100001111110011110010000011100000000011110011111111000000001000000101000011110000000011110010111101110000000111101001111101101111001011111001000001110001010100001000000100010000000100000001000110000000010000001010111111110001001000001010111110110000110111111101000001101111011111111001111011101110100011111010000011111111101011110100000010001111111100000110111100100000110100001001000011000001000000000110000001110000000011111000000101010000010000010000000010001111101000000101111111110000110011111001000011000000001111110000000000011111111100010100000100000000111011101110000100011110111000001001000111000000100111111000,
111111001111011011111101111111100000001100000110000000100001001000001001000101110000101000001010000001100000101000001110000011010000110011110010111110010000101111101000000000011111110011111010000001011111010011111111111101010000110100000100111100100000110100000011111110110000001000000000000001011110110000010000111110000000010011111110000111010000010100010010000001100001100000010110000010011111110111111010000001111111111000000000111010011110110111111110000000101111000011011001111110001111101100001001000000010001001000000101111110111111100100001000111011011111110000010000000000101110010100001011111010111111001011111111000000010000110000000010000100110000010000010011111010101111000100001011000110110000101011110000000001001111100100000110000101000000001111101011,
111101011111100111110111111100000000001111111000000100010010001100001110000010010001001000101000000100001111111000010100000001001111110011111111111100111111111011101110111111111111010111110110000000001111111111111111000000011111101011110010000000101111001100001011111110110000100100001011111000111110111111101111111011101111110111110010000001101111110000001010000011000001101000010000111110001111001111111011111100001111111111111110111110010000110011111001000010000000100011011011111111011110101000001100111101011111111100000000111110111111110000000011111101001111010011111111111111111111000000000010111111111111101111111111000010011111111011111111111101111111011100010001111101001111101000000010000101110000111011011101111100111111100011111010000110000000011011110011;
