MEMORY_INITIALIZATION_RADIX=2;
MEMORY_INITIALIZATION_VECTOR=
000000101111011000000101111011011110110111101101111111011111100000000001111101011110101000000101111100111111110111110110000000001111011111111101000000011111001111110011111110111111101000011000111001010000001100000111111101001101110111111110111001100000100000001100111111111111111100000101000001101111010000000011000000001110011000010011111111101111111000000010111110110001110100001110000100011111111000001000111111110000101000000011111110010001000111110010000001111111100111111000000100000000101111110100111110010000101100000101000010010000010000000000000000110000000111111100000000101111111100000110111110111111111011111111000010011111101000000100000000001111101100000010000000010000000000001011111111110000000000001001111110010001000111111011000010110000101111111010000001011111101011111101111101100001101011101001000000100000001100010001111110111110011100001010111110000010011100000011000000010000111111111110000000101111101011111001000000001111110100000010,
000111000000001011111111110101111110101111111000111110011110111100001000111101101111110100000010111100100000010111101000000000001110011100001000000001001111101111111011111101000000001000010110111000010000001011111010111110101101100100000000111101011111101000011000110111011111110000000100000000111110111000000011111111111111010000011011000000011111011111110101111101010000100100010001000101111111101100000000000000010000001000000100000000100001011111110010000100001111110011110111000110010000111011011100111110100000101011111010111110000000000011111100000000011111011000000001111110100000001011111010000001011111111100000001000010011111101111111011111111100000000000000110111111100001001000010010111111111111111000010010000000000000100000000001111011011111110111111011000000001111101111111101111011110000110111110110000001111111101100001100111111001110011000001010111111000001100000000101000001110001101100001110000000001111010100001101111111100000010011100001,
000010110001110100000110110110010000100011111100111110110000100100001000000000100000010000000001000010100000111011110000000010001111101000000101111111101111111011111101111110101111111000000010111101101111101000000100000000111111101111110100000011001111011100000001111100001111101100001100000000011111010000001110111111100000011111111000000011010000000000000010111100111111111100000111000011000000000011110110111111001110110111111010000001001111111011111100000100111111101100000010000000110000011111110010000000101111011111111110000000011111111000000000000000011111101111111101000100100000000011111100111110100000001100000000111110101111011111101010111111011111111111111111111110110000100011111011000001010000000000000101000000011111110011111111110101011111111111110101000010001111110111111100000001001111010100000001000011000000001100000001000001000001000011110011111110100001001111111101000000000000010100001001000000001111101000000110111101110000000111110101,
000001000001011111111101111110010000010000000011000000010000100100001001000001001111001100000100000001110000010000010000000001100000111000010010000000101111101000000011000010011111101000010000000001101111101000010000000100000000110100000110111111011111100111111101111010111111110000000100000001110001011100001100000000011111100011110100000010100000011111111110000001010000001011111010111101100000000011111100111110101111110011111010111101101111111011101001000100111111111100000111111110001111101111101001111111010000101111111100111110110000100111110110000000101111110100000110000100001111101111111000000000111111101100000000111011000000001011100101111111000000100011110101111110000000110100000010111111100000100100000010111111101111100100000110111101010000100000000010000000101111111111111000000001001111111000000010111111111111111000000100000001100000111100000010111101010001010011111001111111000000001100000010111110000000001111111011000000100000010100011001,
111001100000010000000100000001101111110011111110111111100000000000001000000001111110011100001011111111111111110000011101111011110000101100010101111111100000000100000100111101101111110000001110000011011111011000010100000100000000101111111101111001010000011111100000111111000000000111110110000100000010100000011100111111000000111111100101000000010001100011111011111111010000010100001010111100000000001011100001111111001111101111111001111111011111101011100001000100010000000011111110111111001111110011110100111110100001011000000000000000000000100000000001111110111111111011111011000011000000000011111010000000011111100011110111111110011111101011111001111111100000000000000000000000100000010111110101000000000000000011111000111111111111011100000011000110111111110000001100000100010000001111111011111100100000110100001100000001111111111111111110000011010001011000001000111110010001100000000101000000011111101000000001111110011111110011111001111100111111110100011111,
111011011111110111111100111000100000100111110110111110101111101100000101111110001111101000000101111110011111011011101011111101101110101011111111000000101111101111111101000000011111110000000010110110000000000100000100111110101110010011110110111110010000000100000010111110101111101111111010000000111111110000000000000000011111100000001000111011111111000100001011111111100000010100010010000010111111110000000101111110010001010000000100000000001111110011100000000100001111110000001101111011100001000100001000111111100000101100000011111111101111001111111101111111000000001011111100000000011111110011111111111111000000001111101011000100010000000100001100111111101111101000000000111111111111010100001010111111001111111011101010111110110001000111111101000011100000000111111111000001110000001000000000111110110000101111110111111110100000000011111111111110011110010100000010000001110000001000000100111111010000100011110110111101101111011100001000000000101111110000000111,
111110010000000111111111111010010000110011110110000001010000011011110101111110000000111111111101111111111111110100000100111111101111110000000010111110011111100011111010111101001111100111110111111100001111110000000010000000001101111111111010000000110000000100000000111100101111111011110111111110111110110000000001111111011111010111110110000001011110111000000110111111011111110011111011111110011111111000000100111110101111001000000011000010011111101111111011000000110000010100010110000001001111011011111100111110110000011000000010111110111111111111111111111111011111101011111001000100011111111111111110000000001111111011111010111101001111110000000000111111010000000011111110111111101111110100001010111111101111110111110110000000110000001000000101111111001111101100000001000000010000000011111110111111111111010111111110000010100000000100001000111111101111101111110101000100100000111011111100000001101111101111110000111111111111011111111000111110001111110111110011,
000001101111111000000001111011101111010000000001000000011111010011101000000000000000001111111011000000000000110100000111000011010000010111111010000000111111010011111100111101010000000000000001111111001111110111111101000000011110011111111111111111010000000000000100111101101111111111110101000001011110101111111011000000101111100111111101000010011111000100000111111011010000000111110011111101101111111111110101111111101110111100000010111111000000100111101111111000111111110100000101000011111111001011101011111111011111101100000000000001101111101111110111111111100000001100000000000100110000001011111100111111111111111111111101111001001111101100000010111110101111101111110110000000001111011000001011000001011111111100000101111111101111101000000100111110001111111111110100111110011111110111111100111110101110101111111101000010010000010000000011000000010000000100000100111110000001000011111001000000110000001011111101111101101111101000000100111110111111110111101101,
000001110000100111111100000011101111101100001110111111001111111111110100000010101111111000000011000000100000110100001010000010100000111000000001000000010000001011111110111111011111110100000001000010011111011000000000000000111111001011111101000001110000001111110111111101001111101111110110111101011111000000000011000000001111001011111111111111110000011100000100111100100000010111111011111111011111100111110001111110011111010011111010111110011111100111110111111100101111111011110111000010000000000011101100000000100000010111111010111101011111101111111011111110010000000100000001000000101111111111111101000000011111101111111110111101001111111100000111111110000000001011111000111101010000110000000110111111101111111000000101000000011111000011111100111100111111101100000001111100101111111011111111111101001111000000001100111111010000000100000100000001000000011000000000111110011111110111111110000001001111110011110101111110000000001100000100111101101111111011111101,
111001101111111000000001000011100000010100001001111110100000011100000001000000001110000000001111000100100000111000001111000001100000001000000000111110111111111011111010111110100000000111111110000011000000000100001010111110100000010011111011111100110000111011100001111111101111110011110010000001001111100000001010111111011111101111101101000011010001011100010000111101110000101100010100111110111111110111110000111110100000110000000000000000111111010011100101111111001111100011101111111111011111110011111000000000110000010111111010000001011111100100000100111110111111100011111000000000111111100111111011111111101111110111111100000011101111111000001001111111000000100000000101111111011111111011111000111110101111100111110011111110111111101100000010111110100000000111110111111110001111111111111011000000101111101100001001000000110000000111110001000001110000111100000010000001000000101000000001111111110000010111111001111110000000010000000100111111100000001000010010,
111100000000011011111100111111010001000000000000111111100000001000000001111100001111111100000001000010001111100011110010111110011111010000000010000000100000000111111010000000011111110011111010111100001111101000001010111011101111000000000000111011111111011011111101111111110000011011101111000011000000000100001110111111000000101111111110000011011111111000000110000000011111111000010100000001011111110011111011111111010000101111111011000000011111011111110100000000000000001100001110110111000000110100001011111111010000100111111101111111111111011111111101000000001111110111111111000000001111110011111010111110111111100011100111111101010000001011111101000000001111100111111001111110111110110011110001111111001111100111101101000001001111111000000100000001111111101111110001001000000000000111111011111100011111100100011000111111001111100111110011111111110000011000000001111111011111110111111010111111100000101000000110111111110000000100001001111101101111101100000011,
111111100000011011111100111111100001001011111001000000011111101000001011111101010000111011111111000010001111101011111101111110110000000011111000111110001111100000000111111110010000011000000001111110011111011011111101111110111111010100000001000000101111111011111111111111000000001111110111111110100000100000000100111111000000110111111110000011010000000111111101000000010000000000000110111111011111101000000000000001001111111000000010000001001111010000000010000100001111100100000011111100100000110000001111000001001111110111111100111100111111001011111110000000010000000111111100111111101111100000000100111111011111110011110001000000111111110100000010111111011111101000000101111111001111111011101001111110001111110111101111111111001111110100000011000010001111111111101101000001110000010011111111111111101111111000010001111111111111100111110111111111010000100000000100000010001111100011111010111110111111110111111111111111010000000000001101111101110000001011111010,
000001100000010000000000000010110000101111111110000001101111101000001010111011100000011011111011000010000000010000000000111100111111011111111101111111010000001011111110111010000000010000000000111111011111101111110000111101011111100100000001000000000000100100000001000000101111101111100100000000011111111111111110111110000000010011110111000101010000011100001100000000011111010000000101111111011111100111110111111110100000001111111101111110101111110000000101000001010000001000000000111100011111110000000111111111100000011011111101111110101111111000000001111111101111101111111000111110001111110000000010111111101111111111110011000100110000000100000010111110111111101100001011111101010000011111101111111110110000000100000101111110111111100100000000000001100000010011101001111110111111111011111001111111101111011100000000000010010000000011110101000000011111110100000010000011000000001011111110000001100000011100010000000000011111110100000110111110111111101011111011,
000010001111111100000000111101101111010100000110111111001111101000001001111100001111101000000010000001010000101100000100111111010000000000000110000000000000010000000000111011000000010100001110000001101111111100000010111111111111101111111101111111000000110100000101111101101111111011101010000010000000011100000111000000110000000011111110000101000000100100001100111110011111001000001000000000011111011011101001000000001111101111111011000000000000001111111011000000011111101111110110111111010000011011110110111111110000011111111000111111001111011011111000000001001111101011111010111110100000000011111100111111110000001011111001111111101111011111111010000000111111111000001101111111000000100011111001111101110000111000001011111111001111100100000011111111101111110111110111000001011111111111111000111101101111011011110000000100010000001011111011000011110000010100001010111101110000001000000011111111110000111011111101111111011111101100000110000000001111100100000101,
111111010000000011111100111110001111010111111101000000010000101000010010111110000000000000001001000100001111110011111100000010011111101000001111000000011111101011111011111111100000001011110100000000101111011100011001111111100000100011111111111101110000010011111111000000001111100111110001000100111111110100001000111110010000010011110110000000111111011100010000000001011110111100010110000010111111100011101101111111000000010011111111111111000000000111111000111101100000000111111010111110000000110011111111111110111111101011111010000001100000000011111101000001010000010011111111110110110000001100000010111111000000001011111100111011101111110100000000000010010000000100000000111110111111010011111110111111110000001011111010111111110000110111111010111110101111011011111100000010000000001111111101000001001110101100000110111110011111101111111001000100010000001100000011111110011111111011111010000000010000011100000010000001000000010000000001000000101111110100000111,
111111010000110011111110000001110000111000001101000000001111110011111110000010101111101100000010000011000000000000000011000011001111110111110111111110110000000111110101111001010000010000000011000010000000001000010010111100010000010111111000000010111111111111110001000011111111111000000001000110011111111111111010000000110000111000000001000010101111101100000000111111100000000000000110111100111111111011111010111111110000000111111111111101111110101000010000000001001111110011011111111110011110110100010000000001000000101111111000000000001111100111111111111110101111100111111011000000010000000100001000000001000000001000001100111101000000001100000010111111011111111100000111000000001111000011100110111111001111111011101111111111011111100000000100000010101111110111100010000001110000000000000010111111110000100000010001111111110000001011101000000011000001001100010010111101011110111111111011000000010000000111111111000000011111111000000111111110011111110011111011,
000000100000110111111011000001110000100100000001000000100000001100000001000100000000000111111001000000110000000011111000000000101111011011111000111111010000000111110110111100100000000111111101111111001111011100000101111110110000010011110011111110101111101011111101000011111111111100001000000011101111100100000111111111110001001100000101000001001111001011111100000010100000100100001011000001011111110100001001111110100000001000000101111100100000001000010110000010101111101011101011111111011111111100011010111110100001001011111101111101111111100000000101111110111111011111111001000000000000001011111111000000110000010000000111111100011111101100000111000000001111110111111110111111111110101111101111000001011111011111101000111111100000011111111100000010010000000111110110000100001111100111111100111110100000110100001011111110100000001011111011000000000000110000010000111111101111000100000001000000001111101000000011111111000000000111111110111110010000011000000001,
111111100000000100000001000011010000011000000001111111111111101111111111000001111111110100000010000000000000011011111000000010001111110100000011000001001111101011111011111011010000001000000001000000101111100111111001000001000000001111110100000000100000000111111110000100001111111111110111000010011111011000001110111110110000100100000000111110001111000011110011000010000000010000000010111111001111111100000010111110110000010011111100111101101111111100001000000001011111011111110101111111100000110000001011000000100000111111111100000000011111101111111110000000010000001011111011000001001111101111111110111111001111110100001101000000111111110000000111111111101111111011111000111111101111101111101111111111111111011011111010111111100000001011111010000001011111111111111001000010010000000100000010111100010000001100000010111101010000000000000000111111110000000000010010111111011110110100000011111110010000001100001011111101111111100111111001111110011111110100000101,
000010001111101011111100000001010000000011110110111111111111011100001001111111010000000111111100111011110000001100000011111101101111110111111000111111000000000000000001111111111111100011111101000000000000000111111101000001110000001011110100111100101111111100000010000011111111111011111000000010100000000011111110111110100000000111111110111101011111100100000001111111110000101000000001000001001111111100000011111110010000001011111101111011110000010100001100000001101111110011101111111111111111111000000001000000010000100000000010000001101111101111111001111110111111110000000010111001011111101011111011000000011111011011111111000010001111101100000110000000001111111100000000111110100000011011111011000000000000000100000010000001100000111011111011000010100000000011111011000011011111100111111011111011100000000111111111111110011111110100000100111111011111100100001010111111101111011111111110000000100000011111111000111111101111110011111000111101110000000100000001,
000011000000001100000010111111111111001011110100000001001111100011100001000000100000010011101000111101000000011011111010000000010000101011110110000000000000010111111100000001111111101100000100000000001111110011110010000110111111111111111000111111001111010000001110111111101111111111110011111101010000100011101110000000111111110100001101111011111111111111111011111101001111101111100001111110100000010000000100000000000000101011111011111100110000111111111110000011100000010000001000000001011111100000000010000001010000101011111001111111111111110000000001111110000000001000000101111100111111101000000001111111101111110100000011111010101111101100000111000000011111100111111010111101101111110000001011000001011111101000000110000001010001000100000001000010010000001000001110111111110000010011111110111111000000101111111100111111001111110000010000111000111110110100001110111101101111100100000010111111001111111111111111111111111111110011101111111101101111100111110010,
000000101111010111111010000000011111011100000101111111110000100111111011000000000000101000000010111111100000101000000011111110000000000111111000000000001111110011111010111110000000000111110011000011011111110111110101000000000000101100000100111111100000000111111001111101101111111011110101111101100000010100001100000000100000010000000000111111010000100111110010111111010000001100000001000001101111101011111110000000011111111000000000111111010000001000010000111110101111011000000101000000110000110011110101000001011101100000000000000001010000001100000001111110011111110011111101000001001111101100000001000000011111100100000100111111001111101111101110111111000000000111111000111110100000101011110001111110100000001011111000000000001111110111111000000000111111110000000101000000000000001111111101000010100000000011111001000010010000000100001100000000000000000011011110111110001111100000000010111111011111111011110101111101111111111000000001111110100000010100000101,
000010011111110111111001000001010000100100000011111111110000001000000000000010001111111111111101000000000000011100000001000001010000100011111010111110001111110011111101111101001111111011110111000010001111100011110111000010000000111000000110000010100000010111111001111110001111110000000110111110000000000100000000000000101111111111111111000001110000000111110100111111010000001011111100111111010000001000000110111111011111111011111110000000001111011100001000111111000000000111111101000001101111101011111010111111101110110111111101111110010000010111110111111111011111101111111110000001010000000111111011111111111111110000001010111011011111101011101110111111011111110000000000111101110000001011111000111111011111100100000001111110110000000000000001111111011111110100000111111100110000010111111011000000110000010011110111111111100000000111111101111111110000011111110001111101011111100000000010111110001111011111111011111111001111111100000110111111110000000000000101,
111111000000011000000001000001110000011011111010111111110000011100000011000000001111111111111110111100001111101100001000000000110000001111110111000000101111101100000110111111111111011011111111000000110000001011110101111111010000010111111111000000111111011100000011111101001111110000001111111111100000100111111101111101110000010011111100111100000000000111110110000000011111111111111100000001001111111000001101111110000000000011111011111111001111110011111111000001000000010000000100000010101111111111111000000001000000001011111010111110000000000011111101000000001111110111111011000000001111100100000000000000001111101111111111111101111111101100000100111111101111111111110011000000000000001000000100000000010000000011111100111111110000100111111011000000111111101000001100111111010000001000000000111110101111111100000111111101100000000100000100111111111111100111110101000000001111111111111011111110111111101111111000111111010000000111111010111111100000001000000011,
111110110000100011111101111111001111101111110110111110010000100100000101000000001111110100000010111101010000000000000110111111010000001011111000111111111111111011111111111111000000000100001100000001011111100011111011000000000000001000000100000000000000010000000110111110011111101100000000111101110000011111111010111110110000010000001100111101100000001111111000000001111111110111111101111111111111110000000110000000110000100011111111111111000000011011111100000000100000000100001101000000111111110000000100111111000000010000000001111110101111100100000010111111011111101111111010000001101111110111111100111111000000010000001000000000111111100000001011111110101111111000000000111111110000010000000101111111001111110000000001111111110000010011110111000000001111101100010001111110110000000000000011111110101111101000000100111110100000010000001110111101100000010011111010000000010000010100000000111111011111100111101101111111011111011111111010111111101111101011111111,
111110100000100011111111111111001111111011111100111110011111011100001001111110111111110100000110111100111111111000000100111110111111110111110110111110011111111100000000000000001111110000000100111110111111011111111000000000101111111000000110111111101111101100000110111110001111111111111000111110010000001111111100000000001110111100010001111110100000100111111010111111110000000100000000111111011111110000001010000001000000011011111100000000010000111011111111000010110000001100000111000000110000010011110101000000001111111111111100111111110000001011111100000000100000000000000011000000011111110011111101111111001111110000000011000001100000010100001010111111000000011111111000111111100000001000000110111111101111100000000010000001000000000011111010000001000000010100001101111110110000000000000011111111110000010111111100000001000000001000001001111101111111011000000000111111000000000011111111000000000000001011101100111111010000000011111100111111000000000111111101,
000100001111101011111111000000011111001011111110000000011110100000000101000011101110101000000110111100000000100011111111111010111110101111101110000000011111111111111101111100100000010111110000111100011111101100000100111100101111101011111010111100010001000100001010000000010000011000010101111111100000101100000000111111011111011000011100111011010001100011111001111101010000110100000010000100000000011000001110111111000000101011111101111110100000101100001011111100101111111111101000000001010001001100001101000000100000010111111011000000000000101000000010000000110000011011111010111100010000001011111111000001001111101000010101001001110000010000001010000000100000000011111011111110011111101111110110111111111111101000000100000000000000100111111111000010111111110011110101111110000000010100000110111001010001001000001010000000111111101011111100111100111110000111111101111010110000000011111101111111100000010000000111000000000000000011111000000000001111101100001101,
000001100000010011111110111111001111010100001100000001001111001100001101000000111111100000000111111100010000001111101111000000111111011100000100000000111111111000000011000010111111110100000110111110101111111100001100111101011111001100000001111100111111111100001010000101011111110100100010111111010000010111110001111111001111001000001111111100100001110100000100111110110000110100000010111110111111111111111101111110110000010100000010000000010001010000000000000100001111101011110010111110110000001011111100111111000000001000000100000000111111110100000101111111110000000100000101111101010000001000000010000000111111101100000011111100111111111100001000000000101111110000000111000000101111110100000000111101111111110111111011000001010000100000000100111110100000001111111011111101110000001011111100000001110001001000010000111011111111101111101111111010111111101111111001000110110000101011111100000001100000110000010101111111110000001000000010111111000000000111111111,
000001110000010100000001111110110000101000010101111110111111101011111100111110000000000100001101000000000000010111111001000000101111000000000000111111100000010000000011000000101111101100001010111101110000010111111011111011111111111111111100000000110001011100000110000010010000000111111101111101110001000100000101000000100001010000000010000010010001000000001001111010110000001000011000000011010000001111111110111110100000000100000100000000001111010111111010111110000000000100001001111011100000001011110111000000000000000111111011000011101111111100000100000000000000011011111011111111010000000100000101000001011111101111110110000000110000001111111001111111001111101100001001111101100000011111101011000000100000011011110110111110111111111100000110111110100000011011100010000011101111111111111100111100110000101000000111000001010000001111111001111110000000010111111110111111100001110111111101000000000000011000001101111111101111111100001111111110100000010000000100,
111110100000011100000010111111100000101011111110000000010000001111110000111110100000000000000101000010110000110100010011000000000001010000011010111111111111100000000001111110110000000100001100111111010000010000010000111110101111011111110101111101010001111011111100111101011111101011111100000100110000101000000010000000110000001011110001000010100001000000000011111011010000110000001111000000111111110011110001111110111111111000000001111111001111011011101011000010111111101000001101111110000000000011111011000000100000101100000101111111001111101100000011000001010000001000000001111111000000000100000111111111111111110111101000000011110000000011111011111111010000000100010000111111010000011100000110111111010000010100000111000000111111000100000101000001011111110111111011000010111111110000000000111110011110111000000001000010111111110011111101000010010000011100000001111111110001011000000010000000010000101000010000000000110000000111111100000000110000001100000100,
111001011111101000000110000001110000001011111010111110010001011011101101000001011111010100001111000011010000100000000011111100100000111000010011000000111111110011111100000011111111111000001010111111001111111100010000000000110000000011110110111011110000111111110011000000001111101100011000111111100000010000000110000000000000100011111011000010100001011000010000111100110000100000010011111111011111111111110111000000000000100100000110000000011111110111101000000011110000010011111100000000011111111011111100000001010000111111111100111100100000010000000100000001100000000011111011111010101111110100000101111111110000000011101111000010010000011000000001000000101111110011111000111111010000010000001011000000111111110011111011000000010000001111111110000001100000001000010101000001010000011011111010111110111111001100001010111110010000011000000010111111100000011111110100000000000001001011111101111110100000000000001011111111011111101011110010111111001111101100000111,
111100001110010000000000111000010000000111110011111110101111000100010000000000011111000100010010000001110000100111100011111001011110101000000110111110110000011100000011000100001111101100010011110101100000010000000100111100011110111111110000111011000001000000001000111110110000000000010110000000001110111000011110000000111111101000011110111110010001000111111010111111000001001100100110000101110000001111111110000000110010001000000101000001010000111011010110000111100000010100010100111101000010010111011111000000110000110000000011111100111111011100000011111110101111111000000010111011011111110011111101000000010000001011110000111111100000000011111011111110100000000011111111111110101111110100011000111111011111101111101100111110111111100000000000111101110000011000000011111110000000010000000000111101110000100111110010111110001111111011110011000000111111000111111100000010111111101000000101111110100001100111111010000001010000001000001011000000000000010000001001,
111110010000010000000011111100100001001111110110000001011111101000001001000011111111100011111110111110101111010111100111000001001111100100000001111110100000010000001010000110110000001100000000111010100000010100000010111111111111110011111110000001011111101100001011000000000000010001000000000011011110010000001010111110110000001000000101111101111110111100000010111111111111100000001111000100100000001000000110000001000010000100000100000000010000011011110101000001111111110111110100111110010001110000000000111111000000001111111110111100001111101000000100111110101111111100000000111010110000011000001000111111011111101011101110111101101111110111111010111111101111110100001001000000011110110100001110000000000000001111110001111111111111100111111010111011111111101000001110000001100000011000000010111110101111011100000000111100011111101111111101000000011111101100000001000111001111011011111111111111000001001000010110111111001111110100001000111111000000000111111011,
111111010000011111111110000000100000110011110110000001011111100111111100111111110000100011110101111100111111011100000001111110111111111011110000000001000000000000000110000001001111111011111111000011011111110111110000000001010000011000000011000000001111010111111000000001111111110111111111111110010000001011111101000000110001000100000010000000011111101000000011111110110000000011111011000000111111110100010101111111011111101000000110000000011111101100010100111001011111110100010100000010000000011100001101111111111111110000000110000001000000000100000110000001001111110011111100111100010000011000000011000000000000010100000001111101010000001000001111111110111111111011111110111111111111101100000101000001101111111100000100000000100000100011111110000011111111111111111001000010011111111000000000111111000000100000000111111111110000000100000010111101111111111011110110000010011111101111111110111111001110111100001101000001100000001111111101111111111111111100001011,
000000000000000100000000111101110000010000000101111110110000011011111001000001100000000011111111111111100001001000001110000001000000111011110110000000010000000111111010111110110000011011111000000010011111110011110111000101101111110111111110111110001111100011111110000000110000000111101011111011001111111100010011000000011111111011111011111110000000011100000001000000010000100011110100111110000000010011110100000000111110111100000110000000110000010100000000000110000000000011110110000001101111111100000001000000001110111111111011111110111111111100000011000001101111111111111011111101011111111011111111111111000000011000001101111101010000011011101100111111001111101111111111000001100000111011111000111110101111110000000001111110110000001000000011111110010000000100000111111110110000000011111110111111100001001111110110111101101111110000010011000011000000000111101001000001000000000000000101111111011111111000000011111111100000001111111110111110100000010100001101,
111011010000011111111100000101010000100100000011111111110000100011110111001000101111111111111000111001000000110111111100111011110010000100000000111111111111111100000001000000001111110100010001111110100000000011110001001000110000001011111011111010101101111000010011111111010000010100000100111101110000100000010100000001011111011100001101111100110000110000001011111110000000100100000000111111111111110100001010111111100001101011111011111111000001001011100010001000110000010000000001000100000000101000000110000001000000011011111100110111110000110000000110111110110000011000000010111101101111110011111110111111001111101100000110111111000000011011101100000000111111110111101010111111110000010000001000000001110000010111111000111111100000010100000001111110010000000100100010111010110000000100000001000000100001011011110010111010001111101100100010111111010000110111110011111111010000011100000100000000010000111011111111000001000000010011110001000000111111101011111100,
000000011111111100000110000010100000000000001000111111001111010000000110111100011110100000011010000010010000101000000111000000011111110100000110000000100000001100000011111111010000000100001000000001111111111000000001111011100000000000000110111110010010011111101111111101101111101100001111000111110000100000001100111110111111110100000101000100010001001100010010111111100001101000011101111101010000000111101011111110100000011100000000000000000000100111110010111011111111111100100111111010010000001011101100111111111111101000000010000001001111110100000110111110101111101100000000001010001111110100000001000000101111101011110110111010110000000111111110111110101111111000000100111101110000001011111101000001111111110100001001000001001110110111111111000000110000100111101010111110000000001111111111111101101111011111110011111010000000010011100001000001110000010000000011111011110000010111111011000001000001011100001101000000011111101100011000000000111111110011110110,
000010001111101111111010111100001110110000001001000001011111010000011100111101011111100000011110000001111110111100010011111110011111101000000100111111000000010000001000111101100000001011110011111101110000010000000110111110111111100011111101000010010001011100000001111101001111110100001011000100111111000011110001111111010000010100010010111101100000101111110111000100100001001100010010111111100000010111111010000000110001000000000000111110110001011011110100111100111111101011111011111110010000011111101110111111001111110011111100111101010000000000000110111111000000000111111100000000101111101111111110111111011111110011110110000001100000010011111010000000001111111100000100000000001111101011110111000001100000000000010101111110101110110011111011111111010000000111101011111110010000010111111011111101110000001011111000111110000000001111111000000110001110111100000001001000111111001000000100111111110001011000001011000000010000010000000110000000101111101011110000,
000001111111110011111110000001011111101111111110111111101111100000001010000010111111100111111110111111111111011000000111000010010000010000000000111111001111111100000100111110000000000111111100000011101111101100000001000010000000000000000111111111000000010000001001000001111111101000000001000001000000100000000110000001010000000100000011111101110000011111111101000010110000000011111011111111100000000011111010000001010001000000000000000001101111111000000000000011010000001011111111000100100000011111111111111111011111111111111110111101010000100111111111000000010000011011111011111100101111101000000011000001010000001100000011000101101111101011110110000000111111110111111100000000011111110011111100000000011111111000000101111111011111111100000101000011100000001100000011000000000000010011111101111110010000000011111000111110111111101000001101111111100000011000000110111110100000010000000011000000100000101011111011000000100000011011111100000001010000001100000000,
000001001111111111111100000000000000010011111101111111101110111111111001111111110000001011110101000000010000011011111001000000100000100011111001000000101111101000000001111111100000011000001100000001000000000100000001000011100000010000000101000000101111001011111110000000101111101111111100111101100000100100001011111111000000001100000100000000010000001011111001111101001111110111111101000001011111110111111111000000111111010011111101000000110000110000001001000010001111110011111010000000111111101100000101000001001111110100000011111110001111110000000110111111010000010000000001000000110000000000000001000001010000000000000101111011100000010011111111111111110000000111111100111111001111110000001000000000101111111000000100111110110000110111111110111110111111111100001000000000110000000100000000111111011111101100000001000010111111101000010100111111000000011011111011111111000000000000000110000001011111000100000101000000100000000111110110111110110000010011111100,
111111011111011000000100000011010000100000000001000000001110110011110001000001000000111111101110111011011111011011110010000000000000000011110100000000011111110000000000111111011111110011111010111110110000010011110011000001101111100111111110111111111110111000001100111101111111101111101100111111101111110100000101111110110000100000001111000001111111000111111110111100111111011000001000000001111111110100010111000001010001000000000110000001000000101000001011000100000000010011110010000001110000000000001011000000001111111100000000111001110000010011111010000001010000001100000010111000011111101000000001000001000000001000000100111010111111110111111100000000011111111000000111000000101111011000000110000000010000011000001011000000110001000100000100000001110000001000001001111101110000000100000100111101010001010011110101000001010000010100001000111100100000011011110101000001100000100000000110000000100000000011111110111110110000001100010000111111110000011011110100,
111101001110110000000110111101111110111000000001111111011110100000011011111011101110010000001111000101010000001100000001111110100000001100000110000000110000000111111110111011110000001100011011000010010000001000010011111110111111101011111100111010110001110111110011111110010000001111110011001001101111100100000000111111001111011000000001111101100000111011110111000001010001100100011011000000011111110111111010000000100001001100000011000000011111110011110010000110110000001111101000000001000000110111110101000000111110100011111100000010100000001000000001000001011111111111111101000010101111111111111100000001011111110100000000000100010000001000001000111110100000000000010110111111100001111111110011111110010000001111111001000000010000011100000011000111000000010011101001000010000000011000000011111110000001111011101000111111110000010111100001000111001110101000010101000010010000001100000010111111000000111100001101111111110000000000000000111110100000010111111100,
000010101111000000000011000000010000001111110000111110100000000000000010111011111111110111111111111110001111110100000101111111010000100100001000111111101111111100000100000011000000001111111100000010001111101000001000111110101111010100000100111110111111100111110101000001011111111100001010000011110000100011110010111111011111101111111010111101001110111011111010000000010000111000001010111101011111110100000001111110110000100011111101000001000000001011101111000010000000000000001010111110010000001100000010111111101111111111111101000011000000000100000100111111011111111111111101000010101111101111111100111111101111111011110011111110000000011000000110000000100000010111111111111111011111110100010011000000001111111000001001000001000000100111111110111110111111111000001001000100110000000100000000111110100000101000000001111111011111110111111001111111100000001011111011000001001111111011111111111111000000000000000100000000101111101111101101111110100000010000010001,
111111111111110011111100111110110000001100000000000001010000100000001000000000011111010100000011000001011111110111111111000001101111111000000101111111100000010100000110000010110000000000000010000001110000010100000001111110000000111011111111111110100000010000000010000010101111111111111110000001100000010000001000111111101111100000000100000000001111111011111110111111101111111000001011111111101111110011110101000001101111101000000110000000111111110000000001000100000000000100000011000000100000010011111001000001100000101100000011000010100000001000000000111111111111111100000101000011101111111100000111000001011111110000000011000001100000010111111101000000001111111100000010000000000000010100000100000000110000000100000100000001000000000000000001000000101111110000000010000010010000001000000001000000111111100011111000000011011111111011110101000001010000001100000010000000100000000100000001000000110000010111111100111111011111110011101110000000100000000000001011,
000000010000000011111110000001111111101011110101000000010000100111111010111100111111100111110100111110001111101111111100000001000000111011110110000000100000000111111010000000110000001111111011000011010000010111111111000001001111111011111010000001101111011011111000000010011111101000000110000000010000010011111100111111011111111011111111000001000000010111111001111110111111111011110100000001010000010011111101000001101111000000000110000000000000100100010000111110101111101100000101111101101111011011111100000000001111011111111101000010000000011100000100000000000000001111111110000000110000000100000100111111110000001100001011000000001111110111110110000000110000011011111100111111011111101100000110000001011111111100000011000001000000010000000100000001101111111100000111000000010000001111111110111111000000011100000000000001011111110011111110000010001111011011111110111110110000101111111101000000011110110111111011111111011111101100000001000000111111110100010000,
000011101111100100000011000100101111111000000011000000101111111000000110000000001111011011111101000001010000010111110111000001010000101011110110111110101111111011111110000001000000011011110010000100000000011011111101111111110000100100000101000010110000110011111001000011001111101100001000000010000000010011110001000001000000001111111000000010100000011000000111000001011111100011111010111100000000000000000010000001101111011100000001111110101111100000010110111101110000000111111000111110101110111000000000111111101111100100000011000010101111100000000010000000101111101000000100111110011111101100000001000000110000000100000001111110110000001011111111111110110000010000000011111110101111110100000100111111111111111100000110000001100000111111111010111110010000000111111101000010011111101111111100000000001111011111111011000001111111111111111000111111001111011100000101000000100000000111111011000001001111001000000001000000000000011000000100111110100000000000001001,
111011010000000000000011000000111111010111111100111111000001000100000110111010001111000100000011111100100000101011111111000000111111111011110110000000110000000111111100000101100000001111110101111101110000000111111110111110111110101011110110111111111111100111111011000000110000001000010011111111100001000000000011111111100000011111111011000000110000011000001111000011000000010000000000111101111111110000001000000000100000001100000001111111010000010000001001000100010000010000011010000000001111110111111111111110101111101011111011000011101111011000000101111111100000000011111011000110101111110111111100000000011111110111110110111100000000011000000011111111100000011011111101111111000000010100010000111111110000010100000101111111011111111111111101000100100000001100000110000001111111110000000100111111011111101100000111111110110000000111111111000000100000100011111111111111110000101000000011000000100000011000000110000000101111101011111000111111000000001100000101,
000000100001010111111101000000000001100000001111000000101111010011111010111111110000111111110000111011101111001111110110000000111111110011111000000000101111111111111110000010101111101100010000111101001111111000000110111111101111011111110111000010111111110100000011000000110000000111111011111111110000000011110100111111111111111000000000000000001111001000000010000000000000011111101111111101111111111100000110000001000000001111111010111111100000111100000010000111111111101000011000111011111110111100000001111111100001011111111011000000000000011111111100000000011111110011111011000010111111101111111101111111010000010011111000111111111111111100001101000001001111101000010011000000000000001100100011111111011111111000000000000000001111101000000101111111000000011000000101000000101111111111111010111111111111001000000110000001100000010000001000111101110000100111111001000000100000111111111100111110111111111111111100111110100000001100001101000000010000001011101101,
000010000000100011111011000100000000101011110101111111011111101000000101111111010000010100000000111100111111011011101111000001111111001000000001000000000000000011111101000000100000010011110000111101111111111000000111111110111111111100000010000000110000011100000011000110100000010000001111000000011111111111111011111110110000010111110101111110000000001011110110000100111111110011110111111110000000011011111100111111001111100100000110000000000000100000001010111010111111110111111010111110100000101000001100111111100000110000000010111111101111111100000101000001010000010111111101111110111111111000001000000000000000000111111001111101100000010100000010111111011111101100000001111111010000011000001000000001000000000100000110000000110000100000000010000001101111101011111100000001000000001100000000111111100000001100000010111111100000010100000001000010001111100000001001111110110000000100000010000000000000000000000000000000110000010100000010111111011111101100001011,
000010111111111111111011000100110000001011111000111111101111101111111001111110011111100100000101111111010000101000001101000011000001001011111110000000101111101100000110111111100000000100000010000011000000001011111011000100000000010000000010000001010000010100000000000011110000010011111111000010011111001111111100111111000000010011111010111101000000001100000100000001111111010000000100000001010000000111111011000000000000100100000011111111010000101000001001111101100000000011110110000001101111110100000111111111110000000000000000000010000000100111111100111110111111101011111100111110001111101000000100111110101111111000000101111111001111110111111111000001001111111111110011000000010000011011111110111111100000000100001100000001011111111011111111111110011111110011111101000010101111111000000100000100001111011111111110000000100000010000000000000010011111100000000010111110100000001011111011111111101111101111111011000000011111111011111011000000010000010100000011,
000000000000010111111110000011001111010000001011111111101111101000000001000000100000010100000011000010110000001000000100000010001111100100000001111111100000010111111010111111010000001011110101000000100000001111110111000000101111110100000111000001010000001011110011000010110000010011111010000001001111100100000001111111110000010111111000000001000000001000000000000001100000001000000111111111111111101011111001111111110000010011111110111110101111000000000110111111101111101011111001000001110000100000000101000000111111000111111010000001110000000000000011000000100000001000000001000011001111110000000101111111010000010111111011000001001111101011111110000000100000001111111101111110100000100111111000111111100000000100000101000001100000011011111101000000100000010100000000000010100000011011111110111111110000101100000011111110111111111000000001000001101111101100000001111111001111100111111010111110101111100011111110111111010000010100000110111111100000001000000100,
000011010001001000000000111111001111111000000100111110101111010011111100000001101111110111111111111110001110110111110111000000000000000000000001000000101111010100000000111111010000010000001100000000010000001000000001111110101111100111111010000000100000000000001011111100100000000011111011000001001111010011110010111110101111010000100000111010101111011000001001111111111111101111111110000000011111110100001011111111110001010000000000000000110000101100011001111110010000000111101010000100011111101100001101111111010000001100000011111100000000001111111101111111011111011011111100110111100000000111111100000000011111111000010100000110101111110000000111000000000000001100001011111101111111111100000000111101110000000000001110000001010000011111111001111110110000001011110110111111011111101000000000111010110000011000000101111010111111110000000111111111011111100000010101111100111110111100000101111111110001001000000000000000010000000011111111111111110000001011101001,
000001010001010000000010111011010001010100000100000000111111101100001101111100011111110100000100000011111111100000000010111111110000011000000110111110011111100011111110111101111111111000001010111100000000001100001011111110111110100011111100111111010000010100010001111100001111110111110001000011001110101000001011111111111111110100000011111111101111110000000010000000111111110100001100000011111111101011110111000000010000101000000000111110100000000100000100111101010000000111111001000001001111110100000011111111110000000111111101111100110000010111111011000000111111111100000010111111111111101111110110111110110000000111111111000010101111101000000100000000001111111100001010111101110000000111111110111111011111110011110011111110011111111000000101110110010000100111110000000110010000001011111110111011111111010011111100000010011111111100000000000010000000110000011100111110011111111011111100111111010001101000001100111111001111100111111011111110111111111011110111,
111111000001101000000010111011000000101100001001111110111111111000000101111111010000010000000001000010010000001000001000000001001111111100001011111110111111100011111111111101111111101011111111111111011111111100001110000000111111101100000100000010011111110100000100111111010000010011101110000001011111011100001001111110010000010111111000000000001111100000001100111110000000010000000111111111001111111000000001111110111111100111111011111101101111111111111110110111111111111000001000000010101111100011111010111110101111110100000001111110110000000111111110000001011111011111111111000110001111111011110100111110111111110000000000111111001111110011111110111111101111111000001011111110011111000100001001111111010000101011101101000001001111110000000010111000101111111011111000000100101111101100000000000001101110011100000111000011111111101111111000000010000001001100000011111110010000100111111100111101110000011000001100000000011111101000000011111110100000000011111101,
111010010000010100000011000000110000100000011101111111100000100100000110000101001111111000010101000011000000101000010001111100010001000000001010111110111111101111110111111110101111110000001000000000001111100000001100000000110000010011111011111111100000011111110010111100000000001111110110000010001111111100010011000000110000010111110110111111110000011100000101111101000000100100001111111101110000000011110011000001001111010111111111111110001111111011100001111100011111100000000110000001000000010011101100111110011111111011111100111010100000100100000010111111111111111100000101000100101111110011110101111111100000001111111111111100100000011011110011111111000000010000000111000000100000001000001000000000001111100111101100000001011111101011111010111000100000000100010000000001111111101111111110000000101110101000001000000010001111100011111110000010010000111100000001111111110000101011111110111111010000000000000110111110111111110111111010000000010000000100001011,
111010101111011111111001000001000000010000010010111111100000100011111010000011111110101100010100000100010000111000010000111001100000001100000111000000001111100111111001000010101111100000001001000010001111110100001000000000001111111100001001111101110001110011011001111011011111111011111001111101000000000100011010000000000001000111100011000011100001010000000011111100000000101100001110111100110000001011101011000000001111100100000001000000011110110111100100111101011111101011111110000000001111110111011100111110100000010111111111111111000000011100000011111111001111110011111000000101101111100100000001111110011111101000000001111100101111111011110111111111100000100011111000000000000000110111111111111110101111110111101110000001011111101011111010000001001111100100000111000001101111101000000100111100111111100100001010000011001111101011110110111111110001010111110011111100110000101111111011111111011111100111111110111101101111110111111001111110100000010100010100,
000001111111101011111101111101011111111111111100000000000000000100001111111010100000000000001011111110011111110111110100111011011111100111111011111111001111001011111001000010100000000100000111111100101111110011111100000010001110110111111000111110110000100100010001111011111111101011110101000001111111100011110110111111111111001100010010111010001111001011111110000011110000011100001100000011111111110111111001111111010001100011111101111110000001001011111000000001111111100100001110111111110000101111111110111110110000011011111011111011101111100111111010000001011111110000000010111011111111110111111101111111101111100000000101000100011111011100001011000000010000000100000101000000101111110000001001111110111111101000010000000001001111111000000100111111110000001111111001111101100000010011111001111101111111011100000000111110011111100100000101111100011110100100000010000001000000000100000001000000010001100111110110000000001111100000000101111111111111111111111110,
000001001111111011111101111001100000001000001010000001001111100011111111000010110000001000000011000100000000011000000101111110101111010000001001000001011111111011110111111110011111111111111101111011011111101111111000000000101110100111111000111111110000000000010011111101001111111011111011000010011101111111111110111110011110110000010000111110111111100111111010000010010000011100000100111111101111111100000101000000010000011000000001000001110000111000000111111101111111111100001100111100100000001011111111000000010000000111111100111011010000001100000000111110101111100111111100000001111111100111111011000000011111101111111100000000101111101011111001111110011111101100001001111111001111111000001011000000011111111111111111000001001111000011111101111100001111101100000111111110101111110011111011000000001111001111111100111110010000000100000101000000010000001000000001000001111111101011111101000000110001101011111111111111011111110011111111000000100000010111101111,
000010010000010111111100111010001111100100001100111110001111110111101111000101011111111000000010000000000000010100000001111111110000010000001001000000111111110111111001111111101111101000000000000000111111101000000000000000001111001111111011111110110000011011111111111100011111111111100101000000001111010100000110000001001111101100000001000000111111100000000100111101011111100111111100000001011111110000000011111110011111110100000000111111101111111000000001111111101111111100001001000000100000001111101110111110101111011111111101111101100000100011111101000000011111101011111111000010011111111011110001111111000000000000001011111011001111111111111101111101001111111100000100111110000000101000001001111111111111010100000011111111001111001000000011111100011111100000000001000000001111110111111101111111001110110000001100000010000000001100000011000001011111111111110111111111100000100111111111111110100000100111111101000000011111101000000000000000110000001011101101,
111111001111010000000000000010101111111100001001000001010000100111110000000011111111011000000011000001010000010100001011000000100001101000000000111110011111101111111011000000110000001100010001000010001111100100000101000001001111101011111111111110100000111111111011111100111111111011111000111110101111010000001101000000001111101011111110111111100000101000000111111001010000100111111110000000000000000011110000111110011111110000000100111110011111111011100111111101011111111011110110000010101111111011101000000000100000011000000001111111000000001011111100000000010000001000000000111101101111111011110110111111110000001011111111111111011111100100000101000000001111100011110111111111010000101000010010000000001111101111111111000000111111100111111100111110011111101100010010111111100000000100000101111101001111001000001001000001010000001111111101000000000000100111111011111101100000100111111100111111010000110111111001111101110000010111111001111111111111101011111110,
111011010000000000000101000100010001001100001101000000001111110111110111111100011110011100010000000001000000110100001011111110001111011111111100111111011111101111110111111100101111100000000011000011011111011000010100111011001111101011111100111101110010000111100101111111011111110011111111111111010000110000001011111110110000011011111000000110110001010100010011111101010001001100010000111110110000000011110110000000000000010100000010000000101110111111101011111111001111111011110001000000111111011011111101111111000000101011111101000100001110111111111110111110101111111011111010111111101111110000000010111111101111100111111001000101011111111000010110111101111111101100000010111110010000011111111101000000011111111111100111000001000000000000000001000000011111111011110000111101010000000011111010111101001111100100000111000100001111101111101101000000010000111100000000000000010001011011111110111110110000001000000010000000101111100100000010111101101111110100001110,
111011100000001000000101111110100000000011110000111111111111110111111001111111001111000100000001111100100000010000000101111011011111001000000011000000011111100100000101000000101111101000000010111001001111010100001000000000111110110111111011111110000000011100000111111110010000001011111010000010010000011111111110000000001111100100000000000001101110101011111001111011011111101000000111000010001111110100000001000000000000110100000000111111010000010011101011000010111111101100100010111100100000011111110111000000110000001011111110111111011111011000000100111110100000001111111110000000111111100000000011111111111111101011110100111110010000001000010000000000001111100011111110111110011111010111111110111111011111101100000100000000011111111011111111000100101111110000001110000000100000001111110111111101100000001000000110000100111111100011111100111110001110111000000111111110110000011111111010111110110000011111111101111110001111111000000011111101001111110100000111,
111110101111101011111101000001010000011011110011111111111111000011111110000001111111101011110111000000011111110000000100000000001111001111111100111110100000001011111101000000110000001011111101000000101111110111110000000000101111111111111001111111001111100100001000111100011111101011111001111110111111110011110111111110100000001000000000000000101111110000000000111101111111101011111111111110101111111100000010111111010000000111111110111101110000101111111010111110111111110000010010111111101111110000000010000000100000011000000000111110100000000011111011111111001111101011111011000001001111101000000000111110011111011100000101000011001111110100001101111110010000010011111111111101111111101000000111111111001111100011111010111110111111110011111010000001011111110100000110111100101111110111111000111100111111100100000001000001001111101000001011111111011111011100001100111110111111110011111111000000110000101000000011111110010000001011111101111110100000000011111011,
000000110000100111111011000000010000111100000000111111001110101100001111111110011111110111111011000001000000001000000011000001001111000111111100000000111111110011111110111001100000011000000100000001011111110011110001111111000000110011111001000000011111110100000100000001011111100111100111000000110000011011111000111110000000000000001000000010100000110000001011000001100000000100001001111101111111011000000010000000100000001000000011111111111111100100000111000000011111100000001001111100101111111000001000111111010000110011111000000000001111110100000001000000011111101011111101111110101111100111111000111111100000001000000100000001011111110111111110111110001111110100001101111101110000011011111110000000001111011111110000111111011111000011111111111111001111101111110010111111001111111011111101111110001111111111111001000001100000001011110100111101110000101000000111111100111111010111111110000000000000011011111011000000100000001011111011111111011111101011110111,
111111010000000111111011111110110000101000000001111110111111110000011100111110000000111000000100000011101111100000000101000010010000101100001000111111101111110011110110111001001111110000000101000010111111010100000010000001100001010011111110111100010000001000000111000001000000000111011100000011010000101000000001111111100001001011111110000010010000100000001011000100001111011100001110000001101111110011110111000000100000100111111011111101001110111111111101000101001111100011101111111011110000101000001110111110100000011100000010111101001111001011111001111111010000010100000001111011010000001011110111000000111111110111111000111101101111110111111001000000111111110000000101111111010000011011011101111110011111111011101111000000111111110111111111111111011111111111111000000100011111111100000010000000000000000111111010111110101111110111101111000100100001100100010011111100101110111100000011111111010000001011110100111101111111111011110001111111100000000100000101,
000001101111111111111011111101011111110111111011000000110000111100000011000000100001000111111101111111001111101111110110111110110000111000000011111111011111101111110111111111011111110011110001000001101111101000001001000100010001100011110110111101111111001100000110000001011111110111101100000010110001001100000011111110000000111100000111111110101110110000000010111100001110101100000110000101101111100011110011111110010000000111111101111110101111101011111111000001011111110111110001111010100001100000001101000000010000100011111010000001001111101011111101000000001111110011111111110110001111111011111111111111001111101011111010111011110000000000000001000000000000000011110001111101110000001011110101111111100000000011111001000000110001110011111100000011001111110000001010000110010000001100000000111011001111110000001010111101101111111100001100000000100000011100000111111011011111111000000101111111010000000011111110111111010000001011110011111101111111111000000101,
111111110000100011111101000001100000010000000001000000011111011011101011000001011111000111111010111110110000001100000011000001011111001011111001000000001111111011111010000000101111110111111010000001111111011111111011111011100000011011110110000010000000101111111001000001101111111111111110111101101111110100000000111110110000100100000111000011011110111000001111111111000000001011110101111110101111101000001010111110110000010000000000111101111111110000000000000001101111111011111010000001111111001100000000000000000001001011111110000011001111100011111110111110111111110111111001111110000000000000000100000001011111100100010010000011000000010100010101000000000000100011111110111101111111011100000101111110111111110011111001111110110000001111111010000100111111111111110101111100111111101011111100111101010000101100000100000011000000010011111010111111001111101000001010111100000000001011111111000001001111111011111011111111011111111111111110111101011111101100000010,
000001100000101000000010000011001111111000000011111111110000011100000011000000111111111000000011000011000000100011111100000001011111110011111111111110011111110000000001000000001111110000000001000000001111011111111100000000000000010011111011000000001111111000000101000001111111101100000001111111111111111000001100111110010000001000000101000000011111100000000001000011000000010100000110111111011111011100000110111111001111110000000010111100010000011000001010111111110000001111101101000000010000000000000010111111000000110011111010111111011111000111111010000000001111110011111101111111111111101000000100111111100000001000001100000100010000001100000100111111001111101000000011111110001111010100000011111110001111101111110001000000111111111111111010000001000000001000000101000001011111100100000000000000100000101111101101000000000000000111111111111111110000011000010001111111011111010011111010111111100000100011111011111111000000000000000101111110101111110100001001,
000010011111111000000010111111010000010100000111000000110000011100001101000001000000101111111101000010010000001111111001000010000000000100000110000000001111011111110100111111001111111111111111000001101111100011111110000001001111101111111101000000001111100111111111000001110000000011101111000100111111110100001010111110100000011011110111111101101111010111111010000010011111111100000010000000001111101011111111111111011111010011111111111101101111111000011010000101101111011111110111111110010000100000001101111110010000011100000000111111011111100011111100111111101111100011111011000000111111101011111100111111101111111000001011000000001111100000000000111101111111100000000100111111000000010011111111111111001111110111110100111111100000010100000011111110111111111100001001000101111111101011111101000000000000000000000011111110111111101011110110111110110000111000001100111110101110111100000101000000010000100111110110111111100000000000000001111110101111101111111010,
000001110000001011111100000001001111111111110011111111001111111100000000000001001111101111110010111011101111110000000101000011100000110011111000111110001111101111110111111110101111111100000000000000111111110111111110000011000000010000000010000000011111001011111100000100101111101111100000000000010000101011111010111110100000011011111100111011001111110111111100111110010000000011101110000010011111101111111100111111101111111111111111111101111111100100010011000001111111111011110001111100110000010100001001000001010000100111111011000011011111101100000011111111111111101100000010111101010000000100000001111111000000001100001001000001111111011000001001111110001111110011111001111111100000001111111100111110010000001011111001111110100000100000000010000100000000000111111100000100101111101111111110111101000000111100010001111101010000001000000100111111001111111100001001111010111111101011111100111110111111110111111101000000101111111111110100111110100000000011111001,
000010000000011100000000111100111110110111110101000000111111101011110100111110110000100011100110111011101111111111111111000001000001001011110111000001000000000011110110111110011111100000010101000010010000000111110000001000000000100111111101000000001111000100000110000001000000010011101111111100010000111011111101111111011111010100000101111011010000010100000100111000011111001111011110000001110000001000001011000001000000011000000101111110010000101111111100000101101111101111111001000001001111011011110011111110100000001011111011000010001111101000000100111111101111100011111001111100111111111000000011111110100000010111111110000001110000000000001110111110011111101100000100111111100000101100000011111111001111100000000101000000110000111011111010000101110000001100001001000001111111110111111001111011100000100000000100111110111111110000010101111010111111010000001011111111100000001100000010111101111111110011101111111110001111101111101110000000010000010011110001,
111111111111101100000101111110101111110011111100111111110000110100000001000011110001011111111110000000010000000011111101000011001111111000000000111111101111101111111101111111101111111011110111000000011111010111110100000001000000110011111111000000001111010100001000111101011111111011110011111101110000001100000111111111010000101111111111111110010000010011110010000001001111101111111010000001101111110000000011111111001111110111111011111111110000000100001111111110001111101100000010111111010000000111111011000000111111001000000010000011001111111011111001000000001111100100000001000001001111110011111000111110111111110000000111111110001111111011111010111111111111101011110111111101010000011011110110111110010000000111110001000000110000000111111111111110101111010100001101111111110000010100000000000100000000001100001001111111111111111100000010111100100000000111110001111101111111000111111110111110111111010000000001111111110000000011111000111111111111100100000010,
000000101111011100000010000001100000011100000000000000010000001011111101111111110000010100000100000000100000100100000101111111101111100000000001000000010000001000000100000010011111010011111000111111011111111011111100111110110000011011111001111111011111101100000110111100010000000000001010111111100000010000001001111110010000101100000100111101010000111111101101000000101111101100000001000001001111111000001000000000100000000000000001111110110000100100001101111101111111111100001101000001010000001011111000111110111110111011111001111110010000001011111011000000101111111011111010000000110000001011111011111111101111101100000101111100101111110011110111111111101111111011110110111110000000000100000000111110011111111011111101111111011111010100000100111111000000000100001100000000000000001111111110111111000000000000000110000000010000010000001000111100000000000011110100111110101110110111111101111111101111100111111100111111111111111100000101111111110000000111111111,
111111011111101111111010111110011111111000000001000000011111110100000100111101110000000100000011000001110000011100000010111111100000001011111111111111101111011011111111000000011111011011111001111111011111011111111010111110111111111000000101000001000000010100000100111110011111101000000011000000101111111000000001111101111111111000001001000000100001000111110100000011001111110100001110000000001111101100000010111110010000001000000100111111010000001000010001111100000000000000001110000010001111110011111000000000101111010100000011111111011111101111111010111110101111100111111101000010000000000000000001000000110000001011111110000000111111100111101010000000011111100000000001111111010000010011111100000000110000000000000100111111011111100011111110111111111111011000000111000000001111101011111100000010001111000011110110111111101111101100000011111111110000001111111011111101111111011011111001111111001111111111110111111111000000010100001001111111101111101000000011,
000001101111010000000010111011101110101000001001111111111111100000001101111101011111110000001010000000100000000111111111000000000000100011110100111111101111100111111110000010111111110111111011111111111111111111111101000001011111100100000000111111000000100000000011000000100000001011111100000000111111101100000011111110000000000100000111000000000000010011101111000000101111111100001111000001101111101000000010111111100000000000000000111111100000011000000010111100101111110100001111111111110000001011101011000000101111001011111010000001101111100011111101000000101111111111111100000000001111100111111011111111101111101111111111000010101111101011110010111110111111101011111111111111011111111111111101000001001111110000001000111111110000000000000011111101110000000100001101111110100000001111111100000001001111011111110000111111001111110000000111000001011111101011110101111110011111111100000011000000100000010011101101111111001111100111111110111110110000001000000000,
000000011111001011111100111110111110101011110011111111100000000100001100000010000000001111111010000000101111110100001000111010110000001011111000111111001111100000000010000101011111111011110101000010111111110111110010000010000000100011111001111101011111100111110111111110111111110100001100000000111111110011111111111111011111001100000010111011101111000111100000000010010000001011111001000100011111111000000111111110111111111111111100000000010000001000000101111100000000000000000101000001000000010011101011111111111110110100000100111110001111111111111111111111111111111100000100111111010000001111111101000000110000001100000101000010011111110100000010000000011111111111110001111101111111101100000000000000110000000100001001111111010000111000000001111111001111101100000110000001000000000000000000111101111111110011110010000000110000000000001110111111011110111111101100111101101111100111111100111110101111010011110110111110101111101111110011000000100000000100000101,
111101100000111011111111111010111111011011110111000000100000011111111010111000000000111111111011111111111111001100001100111110110000100000000011111111011111011111111110111110101111100011111000000001010000001111111101000011111111110011111110111110001111101100000000000010000000001011101010000010110000010000000100111111011111111111110010000000010000000111111111111100011110100111110111000001100000010111101011111101111111110011111110111101101111011111111000111111101111100000001100000010111111111011110010000000111111111111111001111110001111111111111101000001011111110011111101000001001111111111111000111111011111110011111011111101111111110111110010111110111111110011111110000000000000101011110110111110101111100000000110111111101111100111111110000000010000011111111010000010110000001011111100111100111110110100000101000010100000000100000110000001100000101011110111111110010000110111111101111111000000000100000101000000001111110011110000111111110000010011111111,
000000000000001011111011111110000000010011111010111101110000001111111111000001000000100111110111000000010000010000000111111101000000000000000101111111100000001111111111000000110000010011110111000001111111111011111011000011000000011100000000111110101111101000001000000000101111101000000111111110110001000000001011111111010000101111111010000000111111000011110001111110101111010111111010000000011111011011111110111111101111111000000101111111101111001111110111111011010000001100001001111111100000011000000001111111111111010111111101000000011111101111110111111111111111100100000000000100011111100100000010111111101111101011111010111100100000010000000001111110101111111011111010111111011111100011110101000000101111100100000000111111111111111100000010111111111111110111111111000100000000010111111011000000001111010000000000000001010000001100001110000000000000011011111111000001000000100100000010111110011111100111110111111101101111011111111110111101101111100111111111,
000000010000010011111110000001000000000000001111000000100000000000000111000101101111101100000000111111111111110000000010111100110000011000000000111110111111110100000110000011101111101100001000000010000000001100000001111110100000011011111110000000010000110111111110000001001111101111111110000000101111101111111110000001010000101011111010111111110000110000000000000000101111110100000101111110111111111011111101111111000000001111111100111111100000001100001011111011110000011000000001000000000000001011111001111110101111110111111100000000100000101011111110111110010000000111111010000000001111110100000101111110111111110000001010111110100000010111111110111111100000000111111111000000100000001100001001000001001111111000000100000000100000011111111010000010001111101100001101111110010000010000000010000010110000000000000011111010110000010000000001111111110000001011111110111111010000000100000010111111101111100011101101111111010000001011111101111110101111101111111100,
111001111111010011111111000101011111010100001001111110111111011000000000111111011111010100000100111101111111001100001100111101110000001111110110111110101111101100000011000001110000001100001011000011010000001000001001111110110001010111111101111110010001000011101010000011010000000111100111111101100001000011111001111111010000100000000001111101010001011011110100000001110000011111110001111100111111011100000100111111011111111100000000111111011111110000000111111100100000010111111010000010011111110000000011111110110000011111111010000010110000001000000101111110111111011100000001111001110000001100000011111111010000010100001000000000110000000100010001000010011111110111111110111101111111110100000100000000111111011011111100111110100000101011110111000100001111011100000111000001010000001011111000111111000000110100001010111010010000000011110110000001000000000111110001111111111111011111111010111111101110110100000101000000100000000111110101000001100000011000011010,
111011101110100111111011000100111111100011111011000000111111101111110110111010001101011000001111111011101111000100010111000000001111001011111110111111110000000111111010000100001111101100000001000110011111100100001110111101000000100100001010111011010010001011100111000000011111100011111001111111010010001111110010111110111110011100000111111111000001101011110110000000111111111011111111000001010000000111111000000001011111110011111111111110001111111111110110000010111111101011111000000011011111011111101100111110111111110111111111000111100000100100000010000001001111111000000000111010010000001011111100111110111111110100000110000000100000000000001111111111011111110011111001000000011111110100000100111110011111101011101101111110000000010100000000000101100000001011111111000001101111101100000011111101011111111000000000000011100000001011101001000011011101111011110010111010100010011111111010111110101111011000001110000000010000011000000000111111000000001100100011,
111111100000010111111110111111010000000100000010111111010000000111111001111110100000101011111010111111111111110100010000111101110000010000000100111110110000000111111001000000100000010111110101000010101111101100000110000011111111111000000010111110011111110100000100111111110000001011110001000000111111110100000011111111011111111111110111000001001111011011111000111110101110110111110111111111101111110011110101000000101111011111111100111111101111010100000010111110110000001000001111111111101111100011111101000001001111110111111100111111110000010100000010000000010000000011111101000000011111100111110110000000011111111000000010111100011111110011111011111111111111100000000000111101101111101011110110111110001111011000000100000001011111100111111100000000001111111011111001000000110000001100000001111111101111000100000111000010111111100100000011000010000000110100000001111110100000001000000001111111011111010111110100111110111111011111111101111101101111101000000101,
000000101111111011111110000010010000001000000101000000111111011111111001000010001111110011111001000001110000010100001000000000010000101011110110111111000000000011111101000000111111110011111111000010101111110011111000000001010000110000000110000010010000010011111100111110110000000000000010111100110000010100000010000001000000000111111101000100011111101111111001111101111111101011111101111101111111011100000100111111111111110111111001111101111111010100000001111010111111100111111010000100011111011100000100111110111111010111111011000010100000000000000010000000000000000111111000000001000000000011111111111111011111111000000110000000011111110011111100111111101111110100000011111101010000001000000010111110111111100000010000111111111111110111111100000001111111010111110101111101111111110011111001000000101111101111111110111111000000000100000000000000011111110100000101111110010000011011111000111111100000000011110000111111000000001000000011111110000000001011110111,
111101111111001100000001000010001111001000000011111110111111110000001010111111011110111100001100111101011111001111111110111111010000011100000000000000001111011100000001111110100000001000011100000010001111011111111111000000010000010111111100000001000000111000000010000000000000010011110110000000110000110011110011000000111111111100000111111101010001011100000100000010110000011000001000111110010000001000000111111110000000011000000011111111100001000000000100111011011111111111100111000010001111111111111111000000010000110100000101000001100000010011110101000000011111101011111000111001001111101111111101111110100000000000000001000011101111101100000111111111110000001100010011111110000000011000010001111111011111110000010010000000000000100011111010000010111111110100000101111100011111111011111100111111100000100011101011110111011111101100000000000000011111001111111110111101100000000000000000111101110000001000000100111110101111011000000111111110010000010100000010,
111101010000000011111000000011111111101111110010111110101111011000010000000001101111111111111000111011001101100111101110000010011111011111111101000000101111101011111011000011101111100100010000000001001111101000010001111111010001001011111111111011100000101000001101000100011111101011010010000010010000110011100111111111001111000100011100110110100000010011111010000101100000110100001001000001001111101000001101111111000001011100000100000000010000110100001011111101110000011000000110111111110000100000001011000001100000100100000000000010010000011100000010111110101111011111111101110110100000000111111001111111000000011011111011000001011111111100010001000001111111110100001010111111101110100000000100000000101111101011111001111110100000000100000011000011101111101011111111000000101111100100000000000000000000000100000110110110000000010111111001000010101111000100001010111110010000011011111100111111001111111111110100111110100000000111110111000000101111101100001000,
111110100000011011111011111101001111011111011001111110110000010000010001111101110000001011101110111000111110000011101001000001101111000100000000111111111111101100000000000101010000001111101011000010110000001100000000000000100000000111111110111100101110100100001001001000101111100011110000111110010001010011100101000000011111101000011001110001111110110011111101111101011110010011101111000111000000010000001001000001101111111000000011111101110000010100001111000110100000000011110111111010010000101000000011000001101111100100000011001000010000101000000101111111000000000100000010110110001111101100000111111110010000000111111110000011111111100100001101111111011111110011110101111110100000001100000111000000101111011111111001000000100001101011111111001000010000100000001001000111111111100111111111111010011111010100011010111010110000001100010110111110011101011000000011111011010000111100000010111110101111000011111111111101101111110111110111111101011111110000001010,
000001010000110111111111000001110000001100000010000000000000110000000101000001000000110011111101000010100000000000000011000000010000010011111101000000101111101111111101111110000000000011110001000001111111101111111010000010110000101100000011000000101111001111111011000001000000001111111101111100101111011111111011000000000000000111111011111111111111011100000001000001001111000011110110111111001111110011111110000001011111101111111100000001001111100000001000111101011111011111110101000000111111111000000101000000111111001111111110000010000000100100000010111110111111100011111100111100100000001100000100000000011111101000001011000010011111101000000000111110110000011011110111111101100000001111110101000000001111011000000010111111010000011100000010000001111111111111110100000000011111111100000001000000011111101000000001000010001111100000000101000001000000011111110100111100011111110000000100000001001111001111110011000000101111101111111011111111000000000011111111,
000000100000011111111101000011101111101000000111111110100000101000001000000001011111111111111111111111110000110011110010000000000000001111111100111111000000000111111111000001010000000000000111000010010000000011111110000000110000011100000111111111101111110000000001000001011111111100000000111111111111110100000000111111000000001011111110000000011111101000000100111111011111110000000111000000110000000011111110000000110000000111111100111101110000010000000100111100001111110111101110000001110000010111111011111111011111101000000101000100101111101000000000111110110000000011111101111101001111100000000001111110010000010000000111000100000000001111111111111110111111111100000001111110110000100111111100111111011111111000000101000001000000110000000000111111100000001100000110111110100000000000000011000001110000110011110110111110111111111011111101111111010000011100000110111110000000000000000010111110011111111111110110000000010000000000000110111110111111111100001001,
111110111111100100000101111111101111100111111001111110010000111000001110111110010000101000000000000000011111001000000110111111100000111000001110000000111111111100000010111111011111111011111100000001011111111100001100000000000000100011111100111101001111000000001010000000011111101011111111000011110000000100001011111110001111111111111001111011110000110011111111000010100000010000000111000000111111101011111101000000010000011011111100111111110000010111111101111100101111101111111111111101100000001100000101111110010000000011111001111101101111110111110111111110101111111000000100111100110000001111111100000000101111110111101111111111000000000111111111000000001111110100000011111111111111101000000010000000111111110011111010000000100000100111111101111101111111101100010001000010010000010011111100000001110000000100000000111010011111101100000100000011010000001011111111000000110000011111110111111111010000001111110001111110001111111111101110111101100000000000011000,
000010100001000111111011111110010000001111111000111110100000010111101101000010000000101011101001111101001111001111110110000100001111110011110111111110000000010011111111000010110000010000000000000000001111110011111001111110101111111111111100000010011110110000001100111110001111110111101010111100100000100011110101111110010000011000001001111110011111010100000000111100011110110011101110111111101111111000001001111111111110111111111110111101100000010011111100000000010000000000011000000100001111010111110101111110110000001000000010000100110000100111111111111111101111110111111110111011100000010111111100000000001111101000000111111111100000001100000110111110101111111011111110000000011111011100000111111110100000000000000111111111110000000111111111000001001111101111110110111100001111100100000001000001001111001100001111000001000000001000000001111101011110100111111010000000010000100100000010111111001111001000000010111101110000011011111111111101001111111111101001,
000011010001110000000100111100111111110011100111111110010000001111100100111100110010000111010010111101101111000111100100000111011111011011101010000000001111100111111100001010000000011011111101111110110000011011100000111110011111101100001000000101101110000100001100000001001111111111100101111101110000100111100111111110111111100100001001000100011110101000001011111110111110000011011000111101100000000000000101111111001111111000000011000000100001010100011100000100010000000100001010111111001110111000000110111111000000001100000011111110111111110011111111111110110000001100000100111110100000000011111101111111101111101011101110111100110000000111101101111101000000000000010100000001001111101100010010111111101111110000001011000001011111011111111100111111110000010100010110111101001111101111111111000000011111000100000010000001010000010000010100111001011111000111111100000001111110100000000101000000001111000000000000000000010000001100010011000000110000000111111000,
000000010000011011111010000000001111110111111011111110010000110011111011000001100000001000000110111110110000001111111111000010110000010100000001111111011111100111110110111110001111101111111000000010011111101011111100000001110000111000000101111111011111110000000100000000101111101000000000111111110000000100000011111111100000100011111100111110010000001100000011111110111110111100000001000100001111111111111111111110011111010000000000000000101111101111111111111110001111110011110110000001110000001011111000111111111111111100000001000001010000101000000110111111001111100100000010111101111111110011111001111111111111110000001000000011011111101011111111111111010000001111110111111110000000010100000101000000111111111111110100000000010000100111111010000001001111100100000110000000111111110100000010000001001111100000000011000010110000001100000110111111001111100011111100111110001111111100000011111110011111001111110110111110100000000111110110111110000000010100000011,
111111101111001111111010000001111111011111111000000000010000000000000101111101100000000000000001000000101111111011111111000000000000111100000001111110101111100011110110000010001111101011111100000011011111001100000100000100100000101011111100111111011111001000000010000010101111101000000001000010010000101100010010111110000000000011110111111101011111110011111101000000111111101111111010000001100000000111111001000000011111100111111010111101110000010011111100000000101111111111101001111111110000110011111110111111110000010000000001000001111111101111111101000001001111101011111111111011001111101100000010000000001111111100000010000011000000000000000010000000011111101111110111000000010000000111111010111110101111101100000110000000110000011011111011111111110000000000010010000010011111101011111101000001000000010100000001111101111111100100001001000010100000100100000100000010100000110111111111111111001111101000000011000000100000000011111000000000010000000100010010,
111010010000100000000001000001000000100100000011111110110000011100001010111110110000000011111011111111111110110000000011000010011111111000000011000000111111110100000111000010101111101111111110111110110000000000001011111101110000010111110101111111010000000011111111000000100000001000001001111110100000011011110111000000010000011000000011111101110000000000000111000000010000100111111001111111100000011000001001111111110000100011111100111111101111100000000000111101111111111100001100111111111111100000000110111111010000100000000000111111011111011111111010000000011111111111111100000010100000010011111101000001001111111111110001000000110000000000000011111111000000010000000000111110111111101000001000111111011111110011110110111111100000101011111101000001001111111111111001000001011111110111111000000001001111111000001011111101010000001111111111111111100000011000000000000010011111100100000010111110000000001011101100000000011111100011111000111110110000001100000100,
000000100000011100000101111100110000100100001101111111101111111011111111000000101111111011111100000000100000001011110101000001011111001011110010000001100000010111111000000010101111110000001001111100110000011111111100111110011110111111111000000101100000000000000111111100010000000011101111111011101111111111111001111110110000000000001111000011101111111111111111111101010000000100000110111111001111110000000111000001011111101111111101000000100000011000000010111110101111110000001011000000011111001100000000111110110001000111111001111111100000001011111010111111101111111111111110111111110000001100000000000000010000001011111011000101010000001000000101111111100000010100000101111101110000000000001011111110011111101100010000111111101111001111110111000010000000000011100011111010001111111111111101000011001111001100000001000001110000001111111001111001011111100100001011111111110000001000000011000000010000010011110111111110111111111000011011111110001111110111100111,
111111110001000011111110000000111111000011111111000000010000011000010100111101110000100000000010000010100000000000001001000011011111111011101101111111110000000100000011000001110000001000000000000000001111101011111100000000001111010111111111000000000000100011110001111111111111101111100111000100110000110011111110000000110000001011110111000010001111110000001000000011011111101100001011000000111111110111111001000000001111011100000100000001111111101100000110111101010000000111101101000010011111110100000100000000011111100100000100111110111111000111111100000000010000010111111111111011111111110011111110000000010000010011111101000010101111100011110100111100111111101100001101111111000000100011110010111111101111101011111101111111101111010111111011111110000000001111111011000100101111100100000011111101111111110000000011000001110000010011101111000011011111011111111011111110001111111011111101000001011111101100001111111110111111100000000000000000111111111011111101,
111110110000001011111001000000100000000011111100111110111111111100000111000000100000100100000001111111111111110011110011000001111111111011110100111111001111111111111011000001111111101111111001111111011111011011110001000011000000010100000000111110001111000100001011111111010000000111111001000000001111110100000011000000000000011011111111111101111111100100000100111110001110111011111000000100001111100111111111111110111111100011111111111110110000000100000001111101101111101100000001000001010000001011111001111111000000011111111111111111010000000111111100000000100000000100000010111100001111100100000001000000111111111011111110111111000000001100000001111111011111110111110000111110000000011011111111000000110000000011110111111111110000101111111011111101001111110000010011000001100000010111111111000001101111101000001000111111011111101100001101111111100000011100000000111100011111101011111001111111101111110100000010111110011111110011111111111110110000001100000100,
111100100000001011111110000000001111010000000110111111100000010011111010111101100000000011111100111110011111110111111000000000101111011000000000000000101111101011111111000100110000000000000111111110111111110000000010111110011111010111111010000000000000000100001111000001000000000000000000000001110000100100000010111110101111110100001001111101001111110000001011111110001111100011111101000000011111101011111111000000010000011111111101111110010000000111111100000001011111110011110101000000110000000000000011111111010000000100000001111111011111010111111101111111000000000011111100111010111111100111111110000000001111111111110011000010011111111000000010000000100000000011111100000000101111100100001011111110101111110000000110000000010000011111111001111100011111100100001011000000001111110011111010000000001111011100000101111011111111110000000110111111000000010011111101000011100000010111111110000000100000100100000011111110111111110111111010111100110000001011111011,
111001100000111011111111000010000000101100001000111111110000101011111010000000111111101011111100000000111111001011110110000000101111011000000001111111110000000011111100000001100000000100000100111110010000000000001101111100000000000111111010111110100000011111110001000001000000001100001110111111000000001111111010111110110000010011111111000010001111100100001000000001000000001000000001111101111111110100000010000000110000110111111100111101101111110011111001000000001111100000010010000000011111111000001100111111000000000000000100000001000000001100000010000000111111110111111101000100000000010011111010000001011111111111110001000010001111110000001101000000101111101000000110000000001111100011111100111111111111110011110001000001100000010111111110000010111111101011101101000000010000001000000001000011000000010100000011111111111111110111101001000000000000000100000100000001000000011011111100000000000000001011110101111111011111011011111001111111010000011100000101,
111010110000001100000100111010000000101000000110000001010000011000000010000001011111110100000010000010101111100111110110111111111111010000001001111111010000100011111111000010011111111100000010111110001111100100010010111101111111110011111011111111100000111011110100000011001111101000000100111111111111101011111101111111011111100011111010000100001111000100001110000011110000101000001000111101111111110000000001000000101111111100000101111110111111101111110010000010101111011111111110111011101111110011111111000001000000000000000011000100000000101000000010000000011111011100000010000011111111101100000101111111110000001000000110000001010000010111111001111101101111101100001000000001111111111111111001000000011111101000000000111110101110110111111100000000100000011111011100111101011111101011110111000100100000000011111011000010001111100111110010000010111111111100000000111101010000110111111110111111101111110100000111111101101111011000010001111111000000001000000100,
111110111111001100000011000001010001000000000001000000000010000100000011111110101111110100010111001010000001000100001000111101111111010100010000000001000000001011111010111101110000011111011000111101100000010100001010111101011111100111111101111101000000101111110110111101111111111011100011000001000000000000100110000000100001101011101100000001011101111011110001000000110001000000100101000100010000000011110100000000101111100000000110000000011110011011111111111011111111101011111100000001110001101100010000111111111110011100000000111001010000001000000010000000101111101000000001000100110000000000000001000000101111110000001000111101001111111011101011111101100000010111101011111111110000011011100000000000001111111111100111111110101110110000000000111111110000010111101110000100010000001111111011111101011111111011111101111111101111101111110000000111010001000111111100111011011110111011111100000000000000110100001001000000001111110000000011111111101111111000000110,
111110110000011000000100111011001111110011111100111111100000011100000110111011100000001000000010000001111111100111110100111101001111011100001111000000010000000011111001000000000000001000000010111110000000000100000011000001011111001111111011000000000000010000000111000010101111111011110001000010001111001111111001111110001111101111111100111101101111100011111101000000111111100100000111000001001111101011111100000000100000000111111111111110110000010000000100000000111111111000000011111010001111100000000011111111101111101000000010000001000000000111111110111111110000000000000001111110111111101111111011000001011111101111110001000010111111011111111100111111111111101000001100111101100000001111111011000000101111100111111110111110100000100111111001000000010000011111110111000100111111101111111101000000001111000000010100111111101111100100000100000000000000000011111101111110111111110100000101111110100000101111110101000000101111010000000101000000011111111111111101,
000000100000110011111010111011100000010000000010111110100000111011111110111111110000011000000000000011001111100111111101111111101111110100001010000000111111100111111000000010000000000011110001111110111111101100001010111111010000000011111010000001111111111000000100000011110000000100000001000010101110111111111110111110111111110111111000111101101110010100000111111111001110101100000000000001001111111100000010000000001111111011111001000000000000000000000011000000001111011100000111111011011111110100000100000001001111100000000001000000110000000111111100111110001111101011111010000000100000001111110110000001001111110011110110111111011111110000000000111111100000000000000110111111101111111111111111000000001111101111111011000001000000001111111101111100101111110011111100000101000000000011111000000001101111001000010010111111011111110011111111000000010000001011111110111110110000001000000001000000100000010011110110111111011111111111111011111110111111100100000010,
000000000000101111111111000001000000000100001000111110100000111111111111111111110000011011111010000001100000001011110101000000110000001100001000111110110000001111111011111111011111110111110011000000000000001000001000111110111111111011111100000010001111110100000000000010010000000000000110000001011110111111111011111110111111111011111100000010001110110100001101111101011110111111110111000010010000000111111001111110010000000111111001000000000000000000000101111110111111111111111010111011011111110100000001111111100000010100000001111111011111111111111110000001001111110011111010000000100000000111111100111111001111101111110101111110101111101100001000111110011111100100001001111111100000001011111101000000011111110011111111000000110000010000000011111110001111011011111101000001011111111111110111000001101110101100001110111111100000000011111000000001010000010100000110111111010000000000000101111111110000101011110000111111101111110100001100111110111111101011111010,
