MEMORY_INITIALIZATION_RADIX=2;
MEMORY_INITIALIZATION_VECTOR=
000000110001111100010011000011111111111111101111111101000000001000000100111111100000000011111000111110010000111011111000111101100000010000000000000010100000111000000100111100001111100011110011111101111111011011111011000011100000001000000001111010010001001100000000111100100000011100000011111110110001000000001101000001000001000011110001111100110001011011110010111110011111100000001010111011010000100111111111000001000001110100000101111100111111110011111011000001010000001100000101000000000001101000001011111101011111011000000000111101111111010111110111111110011110101000000111111110011110110011111100111110101111101000000000111111110000111100000001000000010001000111111001,
000001000000000000000010000000000000101011111000000001101111011011111110000001011111111111110100000010100000001011111110000001001111101111111100000000100000100000000101000010001111010000000010111110011111011100001000000001111111011100001010000001010000011011110111111110110000010100001001111111100000011100000101000000101111111000000000000001111111100111111111000001100000000000000011111111100000101100001001000000001111101000001100111101100000101000000010111110101111011000000100111111101111101000000010111110010000101011111111111111001111010100001011000011000000000011111100111111001111011111111011000010110000001011111111111111100000001011111100000010010000101011110101,
111101010000000011111011000010011111100011111011000010001111101011111010000000101111100000000111111110110000000100000100000011000000000100000100000000111111011000001000000010010000001000000000111110110000111000001000111110101111000111111100111111000000111100001011000010000000001111111100111101010000110100000000111100100000000100001001111101101111001100000100111110110000000111110110000001100000000111111100000000010000101011111100000011000000001011111110000001111111100000000010111111111111001000000111000001100000010100001000111101111111011111111010000010000000011100000010000000111111100000001110000010101111010100001000111111100000101111111110000010101111011000000000,
000000011111000011111000000010110000011000001101000000100000111011111000000000011111110011111010111110101111111100000000000001110000001000001101111111100000000111110111000100010000000111111101111111010000100011101111000001110000000111111001000001001110111011111101111100011111111111111101000001111111110111111100000000111111010111111111111110111110110100000010000000000000100000001011111111011111101100001000111111001111110011111010111110001111011000001011111111111111110100010000111110011110100000000110000000101111000000000101111111010000000000001001000011110000110000000101111110100000110011110101111110001111111011110100000000000000001111101111111111110000111000000011,
000010000000000111110100000001111111010000000001000001011111101011111010111101010000000000000011000000111111101000000110000000011111111111111101111111011111101000001011111111100000001011111110111100100000001100000000000000001111110100000000000011101111100111111101000001010000001111111111111111001111100000000100000000111111110111111111000000000000010000001000111101110000011000001101000100000000001011111011000000011111110011110111000000100000001000000101000001011111110111111100000010010000000100001100000000111111011100000010111110010000010000000010111111101111100011111111000010100000001100000011000001010000100100000010111110000000001111111101111101110000010011111010,
111111111111111000001100000000110000101111111110000010110000001111111011111101011111100111111110111101111111101011111001111101011111111111111011000010000000011011110100111101011111101000001011111110001111100100000011111110010000010100000011111101000000000011111011111110111111101011111111000000000000001000001011000000001111011011111100000010011111110100000110000010110000100100000001111111011111100100001010111111111111100100000101111101011111100000000011111101100000010000001001000000010000000111110010000000100000000000000100111110110000001000000011000010010000100111110011000001110000011000000000000010011111111100000001000000011111100000001001000001110000101011111111,
000000100000000000001001000010011111011000001000111011010000100100000011000010010001010000000111111111100001000100000000000000111111001000010111000000110000011011111101111110111111010100000111000000100000010000000011000000110000001011111001000000110000110000001011111110101111101100010110111100100000101011111101111101010000010100000110111111001111101100000010111110010000000000000010111110000000110100000010111111110000010000000010000001000000101011111011000001110000001011111111000001100000010000000000111110011111011011111100000010011111111100000100000011110000010111111010111111000001000011111000111110111111110000010000111111101111111111110101000011000000010111111110,
111101110000000011110001111111111111101000001000111100101111110011110000111100100000100000001001111100111111001011110101111101000000111011111101000000001110110100000010000001000000101111111011111000100001010111111010000000000000011000000111111101011111011100000100111110100000001111110011111011000000000011110000000000011111101111111000000010001110110111111011111111000000010100000011000100100000010000010001111110001111011000000010000011111110111000001101111111000000010011110110111110111110111011111101000011001111110011111010111100000000001000001010000010110001001100010000000000111111011011111100000000110000000011111111000000100000101000000100111101000000000100001110,
000010110000001011111001111101001111010111111001000010101111111100000101000000010000010111111111111101100000010000000111111111011111111011111101111100100000001100001110111101111111100000000001000010001111111111111001000010000000010000000001111101110000101000000100000010111111101111111101000000011111011100001010111111011111101000000010000000000000001111111011000010101111110011111101111110101111011100000010000001101111110000001111111110001111110100001011111111101111000011111100000000101111101000000111111111111111010100001000111111010000000100001011000001110000010011111110000001101111011011110111111110101111011000000001111110110000111011110111111110011111100111111011,
000010010000001000001110111111000000010111110101111101011111110000000011111110111111011000000110000001110000110000000000111111011111101011111111111110010000010000000000111111111111100111110110111111010000011111110110111101010000010100001010111110100000011000000000111110101111100000000100111111100000101000000100111101101111101100001010111101000000100100000010111110100000101111111000111111000000101100000111111110101111011011111000111110110000000011110111000010101111011011111001000010111111100111111011000010101111010111111110000000000000001111111101000010000000000000001001000001100000101100000101111111011111110000000100111101100000001011111010111101110000100000001010,
111111110000011000000001000010110000011100001000111100111110111111111000000000010000000000001010111111101111110000000001111101000000000111111110111111001110111111110111111110010000100011111111000010001111101111111010000001011111010000001010111000101111100000001001111111011111110100001001000010010001010111110110000011011111101011100101111111100000100000000111111111101111000000000100111100001110111111111110000000111111110100010100111111001111101011111111111110010000110000001010111101000000101011101101000001111111010000000111111100101111000100001100000011000000000100001101111111001111111100010010111110101110110111110010111011010000101111110001000001100001000100001001,
111111101111100000001110000000101111011100000000000000000000001111110010111101100000001000000010000010101111110111111111000010101111111011111100000001000000011000001111111111010000001100001001000001100000101100000101111111000000011000000010111111010000011111111110000000101111000111111110111110111111110100000110111110110000110000001011000001011111110000000100111110010000010011111001000000101111001100000010000100000000101100000101111111110000001000000001111101110000010000001000000001100000100011111110111101101111010111110101000001110000011011111001111101001111110111110111000001100000110100000100000001110000111011111101000010111111011111111111000001001111101011110011,
111110111111001011110111111101000000010111111111000010110000010011111010000000100001000111011101111100011111111000000001000001001111110111111110000010111111011000010101000010100001100000000011000001110001110000000111000000001111001011111101111110101111000000001010111111010000011000000101111111011111000100001010111100101111011000000000111110101110000100010100111100011111101100010000000000000000101000010110000010001111010111100011000010001110000011111111111101000000101000010000000010001111010011110110000010011111000011101011111110011111011111111100000101110000110111111110111110000000101011111000111111101111000100000100000001111111001011111110111110100000111011111010,
111110110000000100000110111100010000001100010001000000000000001100000100111100001111001011011100111101010000000011111101111111110000100100000101111101010000000000010100000010101111101000000001111111101111100111111001111110100001111000000110111111100000010011110111000001001111101111111000111101101111010000001101000010000001001011101100111111011111010100011110111111011111110000011001111111111111001000001011000111000001100100001101000100011111001011100101000000000000111000000001000000010000001000011000110111100000000011110100000000000000001111111000111101011111011011110110111110110000111111110111111101111111000100010000111111101111110000000100000001000001000100000100,
111111110001001000011000111000011111100100000011111110011111000000000011111101111111011111110001000000111111110111111011111100101111100100000001000010101111101100010110111111101111110000000011000010001111001111100010111001100000001100001100000001000000110000001001111101101111110111110110000010111110110011111111000010011111101011110110111101001111111111110010111100101111110011111100111100001111011100000100000011111111010000001101000000100000111100001110111100000000100111111011111110110001001000001000111101011111100100001101000000001111011011101011111110001111000100010110000001010000000111111001111101010000101000000111111101100001001011111001111110010001010111111001,
111111110001100111111111000100100000101011110011111110000000001011111000111111111111011000010001111101001111011111101111000001000000001111111100111100100000001111111000111111010000100100000101000010010000101000000110000010110000100111110100000010011111101111110011111111110000111000001101111111010000011011101010000011101111111100000110000000000000111011110011000000001111111011110010111110100000100011101100000001001111001000010100111101110001000011110100000001100000001100000110111101011111110111110111000001101111100100011100111101100000010100000010000000101111101111110110111110011111110000001011111110001111110100001000111011110000000111111000000001001111010100000111,
000001100000011011111010111110110000010011110101000010000000010000000110000000001111110000001001111101010000010100001001000010010000011100001010111111001111101111110110000000001111100100001001111110100000110011111001111111101111111100000001000010000000100111111001111110110000011100000101111111100000011111111100111110011111011011110111111111010000001100000000111110101111110000000100000000010000000000000111000001110000011000000011000001110000100111111001000000111111011011110111111101010000011011111000111101101111011100001010111101010000000100000101000001011111011111110111111111111111010100000110000000100000000000001011000010010000011000000110111111010000100011111001,
111100100000011011110101000101000000010100010001111100100000011100001101000000000000110111111101000000001111100000000110111111010001010100010111111101100000100111111100000000111111110100000111000010011111011000001011000010100000001000000111000011011110110000000011111101110000000000001100111111100000010000000010000010111111111011111011000001010000101000011001111111010000100000010000111110101111011100000101111010011111001000000101111110000000001111111001000001101111010100001101000100000000110100000101000000011111100011111101111111001111111011111111111110100000001000001010111101000000001100000111111101101111000011111100000000010000011111110111000000100000111000000000,
111101010000111100000000111111111111110111110001000000100001001011111101000000110000000111100010111101011111110011111000111100111110111011111110111011110000110111111110111111000000110111110110111010111111001011101101000001010001110011111000111011010000010111110001111100110001000011101110111101010000110000010010111110000001010100010001111100010001100100010101111101110000011000010010000001100000110011110000000010110000100100010000111100011110110111110001000000011111000000000110111101110001101000001001111100010000000111101010111101001111111100000110000000001111111111101101111110110000111000000110000000001111100100001001111111010000111111111101000010000001000100010011,
111101100001111000001001000101111110111011110111000101010001001000000111000001100000100100000100111110100001010111111110111101100001001100010011000011110000100111111111111110000000100100000110000000101111111100010010000100110000000011101101111110011111101111100110000010011111100000010001000100111111001100000010111101000000100111110010111110111110100011111111111100011111100111110101111101000001001011110110000010111111010011110110000010101111011011101100000010001111111100000011111111011111111111101101111111111111011000010011000010011111111000000100111111100001100000000100111110110000000000000000000001001111001000000100000001011111001011110001000001000000101011101100,
111111011111000000001110111111100000000100010101111100011111001011110110111101001111111011111000111001101111110011111000111111001111011011110100111101001111001100010110000001100000000011110110001000000000010011101000111111110000100011110101000001110001011100010010111100101111101011111001000010000000101111110111000010110001010011110001111100110000110011111010111101111111010111110101000010101111100000000101000011100001100111111111000011100001010000011011000001001110101011110110000001101111001011110111111100110000000000001110000100100000011000000111000000001110111000001000111110100000001100001001111110010000001111111101000000110000000111110110111101111111010111111001,
000010011111101011111100000001110000011011110111000000100000100111111010111101101111111111111011111111110000010011111101111101110000100000000001000000110000000000000101000001001111100000000111000011001111100111111001000000000000010111111000111101110000010011111010000010000000000111111000000011101111110000001011000001110000010011111011111101101111100100000101111111001111010100000111111101110000001000000001111101011111111100000110000011001111010100000010111101010000100111111001111111001111101000000110111110101111101011111111000010101111001011111001111110101111111100000010000000100000001000000100111111101111100100000000000001011111100011110100111110001111001111111000,
000000010000011111111010111101111111111000000001000001011111111111111101111101110000100011110110111110111111010000000110000000111111111111111000000000111111011100000100000001001111100000000111000001010000100011110111111111111111110100000101000000000000101000001011000001001111100111111011000001010000000111111100111110001111100000000010111110001111101011111010111111010000101100000111111111011111010100001000111101101111111100000110111111010000110011110110111101000000100011111001000000100000000100001001111111110000011111111111000010101111011011110101111111001111111011110111111101011111100011110110000001000000100011111010000000100000101100001011111110100000101100001010,
000010100001001000001010111111100000011111110010111110001111011100000101111111000000100011111000111110111111100111111101111111001111011100000101111010111111011100001100000000100000111011111100110111001111100111111000000001110000111111111101000001010001000011111001111110000000000011101000111001100000011000010001000101000000101111110000111101010001000100010001111111000000010100011010111100100000001000010110000001001111001100000001000001001110010100000111000000010000100100001110000011010000101100000100111100111111111011101110111011010000011011111100000000001111101011111001111111011111110011110111111110111111100000000100111110100000001111110110111110000001110100010000,
111100110001001100001011000111010000000111100101000001011111111100000100000000001111111000001010110110000001010000000011111101100000111000001001111111111110011011101011111111011111011000001000111110110000100000010100000110110000000011110110111010100000001100000001000000000000011000001101000000110010101011110111111101100000010011111010111101000001110111110011111111011110110011101111000000100001001111100101111110010000011100010101000001110000101011110111111111011111100011110010111111100000000000001011000011001111010011111111000100010000110100001101111001111111001100000001111100111111111100010010111111100000110111111110111101100000001111111110111101011111000100000110,
000001100000101000001000000010000000010000000010111110100000010000001000111101101111011100000001111101100000100011111001111111101111010100001010111100111111111011110111000010100000010111111001111110111111100100001011000011001111101000000010000010100000101100000101000010000000101000000100000010010000000111110111111110010000011100000111111110100000101100000010111110000000000011110101111101100000010111111011000000101111111000000111000000111111111011111100111111001111100100000011000001100000100000000111111111110000010000000000111111111111110100000011111101100000000111111001000010100000011011111101000001101111110000001010111110111111101111110111000000011111100100001110,
111110010001010100010100000110101111101011101010000011111111111000010110111110100000101100000000000001000001011100001000000000100000010000010000001000001111110111110000111011011111110011110101000011001111001111111011000110011110100111111100000000111110010011111100000010000000110100011110000001111110111000001011000011101110111100000110000000000000000000001001111111100000101011111110111110001111111011111011111110101110000100000110111010010000110111101110000000100000011000010000111111100001011111101100111100010000101111111111111111101101111000010001111111100000111100010011111111001111000000000010111111001111110011100110000000110000010011111100000010100001010111011110,
000000101111100111110101000000111111101011111110111111111111011000000000000000110000101111110101000010010000000000000101111101101111101011111111000000001111100011110110000001010000000000000110111111011111111000001100000000111111111011111010000000111111110111111110000010110000011100000000111100111111110000000010000000100000011100000111111111010000000111110101000001010000000000000110000011010000101111110111111111000000101000000011000010100000110011111011000001010000110000000011000001100000010111111111111110010000101111111100000010101111010111111011000001100000001111111000111110010000101100001100111111101111011100000100111111011111100011111110000000110000001011111001,
111101000001010000001000000000101111100111101001000010000000111000001000000000010001010000001111111011000000110000000100111110001111011011111001111100010000000011111110111110010000010000000001111111011110110100001100000010111111110011110100111011110001000111101111111111110000110100000011111110110000110000000010000000010000111111110010111111100000011000000000111100000000011100000000111111110000001111110111111110001111110000000110000000101111100111111100111100111110100000001000000000110001010111110100000000101111110000001110000000110000011000000011000100011111101011110100111110110000100011110110111110011110110111111110111101111111010111111101111111100000000100010011,
000000011111111100000110000000000000001100000010111101101111101100000100111110010000100100000111111101100000010000000110111101100000011011111010111110011111010111110100111111000000010011111000000001011111011100000101000001110000101100000010000010110000100111111001000010000000101111111111000010110000000000000011111110101111111000000010111101011111110111111111000010010000001100001100000001010000001011110111000010011111011011111010000000100000010011111011111110101111100011111111111101011111011100000001111111111111011000000001000001111111100100000111111111001111011000000100000000111111100000000110000010110000010111111001000010001111010100001010111111000000101011110110,
000000101111100111110110111101101111100111111000111010110000000111110000000000111111101100010001000010010000001111111101111111000000111000000100000011101111111000001010000100110000000011110010000011100000100000010101111110001110000111110100000010000000000011111111111011110000100100010010000011110001010011011010000010001111100011101101111110110000000111110000000000111111101111110111111100101111000111101010111111001110010100001001000001010001010100001100111101010000111111111000000000001110110111110001000001101111101100011000111110100000001000001110000010000000000011110100111110110001000000011100000000001111001011111000111110100001010100001001111110110000010011111000,
000000111111100111111000000000101111101100000001111110111111110011111111000001001111100111110110000010100000010011111111111101101111110100000010111111000000001011110000111110011111011100000000111110100000011011110110111111111111010000001010000001101111010011111110111101001111101000000100000001100000000011111111000010000001000000001011111101101111111011111011000000111111001100000101111111110000100100001111000010000000000111111000000000101111001100000000000000110000101111111111000000101111100000000011000001011111110111111011111100110000001100000010000000000000000100010000000010100000000100000111000001010000000111111100000000011111010011111001111111101111110011110001,
000010001111110011111010000000110000101011110110000001110000010000000111111111101111111100001011000010110000010111111001111111100000100011111011111111000000101111110101000001000000010111111101111110000000001111110101000000111111111000000100111110011111110000000110111111101111100000000000111101110000011111111000111111110000010000000011111111001111100111111111000000000000000000001010000001010000110111111100000010000000000011111001000000110000011111111101000000100000011111110101111101011111101011110100111110110000100011110111111110110000001111111000000001000000110011110101111101100000010100001001000000011111110111110101000000110000010011111101111110111111111111111010,
111101100000010011110010000101011111110000000101111110110000001111111111111100010000011111111110111100110000101011111101111110100000010100001011111101000000000011101111000000101111111111111010000010110000010011111101000001001111001011110110111101011111100000001101111110000000111000001011000000100001110011100100111110110000001011110100111110111111110000000110000001101110110111110110111101110000011011110010111010100000001111111110111010010000001100010100000001111111101100001001000001111110000011101010000010001111101000010001111010001110101100011011111111100000100100001001111111011110110000010110111111001111010011110101000000101111111111111100000000000000000100000000,
111111001111110011111101111011100000010111111011111011011111010011111011111101001110001100000111000100101110111011101111111100110001000111111100000010111110100100001101111111010000001111110101000011011111011011111111111100110000010000000001000001000000001111111010111111101111111000000010000001110000010011100111000101011111001100000101111111100000000000000000000000011111001111111111000011001110110100000000111101001111010100010110000010010000000111111100000000011111111000001000000000011111101011110111111111100000100000010010000001101111110011110010111111110000000000001001000000011111111111110110111111101111001000000010111100110000001111111100111101000000100011111011,
000010000000011000000100111101011111011011111100000010000000001111110111000011001111101000001000000010001111011111110110000000101111010111111001111110111111110111111001000000001111100000000110000000110000011000000011111101110000101011111111000001101111101111110110000001011111101000001000000010111111110000001111000000010000000000000101111111100000010000001111000010000000100000000000111111111111110100001000000010111111101100000011111110011111100100001001000000000000000000000001111110110000011000000110000000100000101000001000000011001111111100000111111110000000100011111100000000110000010000000011111110010000000100001001111111000000010000001010111111010000100000000011,
111100111111101111111100111101011111001100010010111101110000011011110100111101010001000011111010000010001111011011110110111011010000011111110011111110101111100000001100000000000000101011110011000100000000000111101111111100011111100011111110000001011111111100000000111110101111010000000000000010100000110111111110000000001111100111111000000000001110110100001000111110011111000100000011000001100000010100010000000011111111110011110110000010111111111000001010000000110000010111111110111100001111101000000001000001011111011011111010111111111111110000010001000011000001000111111111000000000000010000000101000001100000000111111101111110111111001111111000000001000000001000000011,
000001110000001111110110000010000000101000000101000000101111111000000001000010111111111000001010000010001111101011111011000011000000011111111010000001001111100100001011111111100000010111110111111110000000000011111011000011001111001011110110000001010000010000000100000000000000000011111101111110110000011000000001000010100000010000000100111101100000010000001101000000001111111011111001111110010000101100000011000001101111010011110100111111001111001100001110000000010000011100000110000001101111011100000011111111001111010100000101111111101111010000000000000001101111100100000011000010110000010011111011000001001111011000000001000010011111110000000011000000011111111100001000,
000000000000001000000111000000011111011011111101000010100000100011111110000010001111111011111100111111111111110100000011111111101111100111110110000010000000001111110110111101111111101111111111000010010000000111111111000001101111001111110110000001000000101100000010000001111111110000000001000010111111111111111010000010000000110100001000111111011111110100001000111110110000101111111101111111001111010111110011111011010000100011111111111100100000101111111110111111111111001000000100111101100000010111110010000000000000000011111101111110101111101000001111000010011111111011111101000000101111111100000010111101011111100000000011111111011111101011111100111111010000011000000100,
111110010000100011111010000010011111101011111100000000000000101100000011111100100001111011101010000001010001011011111011111100101111001100000001111100101111110100000110111100101111110000000010111010001111100011111111000011111111100000001100111111100000011011111111000001101111011100000101000001010000001100001000111011110001110000001111000001101111100100001000000010010000000100010011111100100000011100010110111111100000100111101110111100011110111000000011000000001111011011111000000000110000100011110010111101001111001111110000111110111111100100000110000100000000111111111001111101101111110000000100111111001111000111111000111011111110101000000100111100110000101100000011,
000001111111011000000010000000000000101011111010000010001111111111111111000000001111011011110110111111101111010000000001000001000000000000000010000000111111101111110111000000111111101000001011000000111111011111111010111111100000110100000101111111100000011100001010000001010000010111111101000000100000010111111111111110000000010100001000111110000000001011111101111111110000010000000000000001100000011011111001000010000000011100000010000000010000011111110111111101011111111011111111111111111111101011111110000000111111100111111110111101100000100111111000111111001111111100000000111110111111100111111110111101110000010111111010111111011111101100001000000000100000011000000100,
000000101111111000011000111100111111100011101011000000111110111011101010111110000000011011110101000010001111000011111100000000001111111011101110000001100001000100001111111101010000110111110101111111110000010111110011111011011111101000001100111110010000001000001011111110100000111011100111000000001111101000001011000011001111010111111101111101010001101111110100111110110000101111110110111110001110011111111111111110001110101100010110000101001111101000001010000001110000000000000010111101000001100111110101111100010000010111101011111111110000000111110000000010010000001100010001111110101101101000001001111111000000110000001000111110010001011100000011000000010000110011111110,
000001100000100100001010000010111111100111111101000011100001011100010100111100101111000011111100111111000000110111110111111100100001001000001101000001011111010100000100111101011111100111111111111111001111000100010001000010011111111111111101000001100000000011101101000010011111111000001010000100001110110111111101000000111111100100000000111111100000000000000101111110100000100011111011111110001110101011110101000001101111011111111110000001100000111111101101111110110000010100001011000000010000011000000111000010111111111100010000000110110000110011110101000010011111111011110011000000111111011111111000111110101111100100000101000000100000001011110000000000000000001011111000,
111110100000100000001000000000101111100000001010000000111111010000001001000001011111111100000110000001100000001111111010000001111111101000000111000001000000000111110101111101110000000000000011000001010000100011111001111110011111010100000001111110101111111000001001000001001111010111110110111111100000011100000011000010110000011000001011111111101111101111111100000010101111101011111110000010110000100000000001000010110000011111111011000001110000011011110111111101110000011000001001000001010000011000000100111110001111111111110111000000101111110111110110111100100000001111111111000000010000100111111101000000111111100000000010111110100000011111111111000001010000100111110110,
000001111111111000000111111110101111110100000111111101011111100100001000000010001111100000001000111111001111100111111110000001100000010100000100000001010000010111111100111111010000100111110110111101001111100100000011111101110000000100001000111110000000100000001001111111101111010100000001000001110000011100000100111110011111011000000100111110000000011011110110000001101111100111111011000010111111011000000111000011001111110111111000111101100000100011111110111111101111100100000001111111110000011100000111111101011111011011111010000001110000110000000011000001011111101111111110111110101111010100000010000001011111111111111110111101111111101000001010000000011111010100000001,
000001110000000100000100000001000000000011110010000001000000000111111101000000100000001000000000000010100000010100000110111111010000101100001111000001001111100011111110111100110000010011110110111101011111111011111100000000111111111000000011000001010000000011110101000001110000000111111010000010000000000000000101111100111111101011110100111101111111000011110110111101100001000000000000111110010000010011110101000000111111100000000101111111010000000111110011000010111111110111111001111101110000000000000001111111110000110000000001000010001111100111111000000001101111010111111000000001011111001111110111111111110000000100001100000010111111101100000001000010100000011111110111,
111111111111110000000011111101100000101111111001000000001111011111111011000001111111011011110111111101001111100111111111000000100000001100001100000000001111010111111110000000110000000100000010000010101111100100000111000010100000011111111011111111100000110011111010000010111111110100001000000010000000011000000010000001111111100000000101000000101111100011111110111101101111111111111100111111100000000111111111000001010000000111110101000010101111111100000001111111110000001111111101000011000000100000000110000001010000101011111110000001011111100111111011000000110000010000000010111110000000010000001001000010101111010100001000111110011111010100000110111110000000000000000101,
111100101110001100001001000011100000010000011110111000101111100000010010111100101111100100000111000011111110110011110101111101110000011100010100000011100000000011111000000010101111010111110001000000000000110111111110000011110001000100001110000101000000011000000100000000111110101000001110111111100001100111101111111111110000010000000000000001011110100100000100000001000000100100010100111110110001011000000010000101100001001011110110111110001111111000000011111100000000100011101000111110111110011000000000111100000000000100010001000110101110011000001100111100101110101000000111111110100000010011111000111110010000010011111001111111001111011011111111000010101111101111111101,
111110001111011000000101000000100000110011111010000010010000010100000111000001110000100111111000000000111111100111111111111111100000100000000101000010010000011111110110111101110000100111111100000010010000000011111001000001010000010011111101111110011111110000000110111101010000010000001101000001010000100100001011000001010000101111110101111110011111110000000011111110001111011000000010111110110000010100000001000001111111110100000011000010011111110100000011111111110000100011110111000000110000010111110101111110110000000011111111000010001111011011111001111101010000000011111011000001000000010100000100000010001111110011110111111110101111011100000111111110101111101100000001,
111101000000010100000001111101001111100011111001111110001111010000000111000010101111111100000110111111111111101100000000000000110000100100000010111110110000010100000000000001011111111111111011000000000000011111111011000001010000000100000100111111100000010100000011111111010000011000000101111110010000011000000101000001011111101111111111000001110000100011111010000001010000110000000010111110111111101111111111000000001111100100000100111111000000010000000010000010011111110100001001000000000000011011110101000000011111101111111011111111010000000100001101000001010000101100001001000010011111011000000011111101111111100000000101000001011111111111111110000010110000010000000111,
000001001111100000000101111110000000000011111110111101111111111111111010111101100000000000001000000001110000011111111110000010011111110011111010111111101111100111111001000010100000100111110101000001100000000011111011000001100000011000000000000000011111100000001011111110011111100011111110000001100000100111110111000010001111100111110111111101111111101011111110111111101111110100001010000010001111110111111110000001110000011100000011111110000000101000000010111111100000010111111100111110000000011111110111000000000000101000000100000010000000010000001001111101001111110011111010111110011111111000000110111111010000100100000111000000000000110100000011111110111111110000000111,
000000001111110000000110111111101111100000000001111101010000100100000100111101111111111111111000000000010000001011111101111101101111011111111001111110101111111111110111000001001111010000001011111110010000001011111011111111110000001111110101111111001111010100000111111110101111010111110111111110111111011111111011000001111111100000000111111111111111110100000110111111100000011111111100111110010000111000000110000000001111110111111010000001111111011000001011000001000000110000000110111110111111111011111000000001001111100100001001000001110000100111111110111110110000100011111110111110100000011111111110000001000000101011111011111110000000001000000000000010001111011000000101,
111111101111111111111101111101111111100111111001000001000000011000000111000000111111100011101101001010101111001111111000000000011111011000000011000001100001000000000011000100001111010111111000000001011111100000000010111110000000111011101010000011100000111011111101000000001111011000000100111111101111100100011010111111100001000111010110111101001111010100000111111011010000010100000111111111011111101011110111111111110000101111110000000001110000101011110111111110110000000111110111000010000000001000000000111101010000000000000010001011100000000000000011000001001111000000000000000010100001010011111001111111101111001100000001000011101111001011110110000001101111110000000101,
000000011111101100001111111111100000010111111101000001010000000111111111111100010000010111101100111101010000100100000101111111101111111000000001111101111111010000010001111100101111011100000110000101011110001111101000000001100000000011110110111110101111101100010110000000001111111100001001000001000001010111111001000010100000010111110010000010000001101000010001000001100000111000001111111110111110000100000010000000111111011111111110111011000000111000001001111101001111010100001000000000110001000011110000000001000000101011111011111101001110101011111010000100101110100100001110111111110000011000001101111100001111101111110010111110110000101111111111111010100001100111111000,
000010000000100011110110000001001111011111111011000000011111100000000001111110010000011111111010000010011111010111110101111101100000101011111010111111110000001000001010000001100000011011111011000010111111011100001011111110000000011011110101000000000000000011111110111111101111100011111100111111001111011011110100111110000000011000000101000010101111101011110101111110000000101000000001000000100000010000000100000010101111100000001010111101101111011100001000111101010000000000001011111111000000100011111110111101100000001011111111111111000000001011111110000001111111101011111001000011001111111111111010000010100000000111110101000010100000000100000110000011001111110000000110,
000001100000111000000101000100111111101100000101000001110000110111111000111100010000101111110011000011000001000100000001111011100000010011110010000000110000000111111001111110101111101000000010111111000000011000000111000101100000101000001001000001101111110111111010000001001111101000000110111101011111010100001111111010010001001111101010000000101110010000011111111110000000000100000101000000100000111000010100000001010001000111011100000001011110111100000011111110001111101111101110111110001110011111111111111110111111100111100000111110001111110100010000000000000001100000000100000001100001010111111011111101011111001011111101111110111110011011111001111110101111001011111100,
111110101111100111110110111101111111010100000110111111110000010111111011000000001111110000000101000010000000000011111011000000100000010111111001000010100000010111111101111111101111111100000110000000100000001100001000111111000000100000000010000000111111011000001100000001101111110000001100000001111111110111111001000001000000000100000001000000101111111000001010000010000000100000000000000001010000001000000010111110110000010100001100111101110000100111110101111110010000010000000100000000110000100111110111000001001111111100000000000001011111111100000100000001100000010111111001000000001111010100000100111101110000101000000110111110010000000111110110000001101111111100000000,
000001010000011011111111111110111111100100000001000101010001111000000111111100011111101111110000111101100000011000000011000001101111101100000100111111101111111100000010111110000000101111111111111110110000111100001100000010010000101000001010000100111111111011111011111100101111001111111000111111111110100000011111111100001111110111101001111100101110100000001111111111001111010100001100000011011111010000011010000110110000101111101000111111111111111111110111000001100000010100001000111111110000011000001100111100111111100011101111111101100000010111110101000011000000010111110111111101100000110011101110111111100000011000010011000010011110101000000100111110000000011000000001,
111110100000101000001010111111011111101011101111000001110000010111111000111101010000010011110111111101001111111011101111111100110000110100001011000001001111010111111011111101000000110011110001111100101111111000000111111110101111100011111111111010000000011111111010111101110000000011111001111101110000010000000101000100001111110100000100000001000000110100000111111110110000100011111110000001100000010100001010111100110000101000001000111111001111101100001101111110100001000111111010111110010000111000001000111101011111010011101111111110100000101111110110111110010000101000001000111111011111000111111110000010000000000011111011111110000000110111110001111110010000001011111100,
000000100001001111111100000101001111110100001111000001010000111000000010000000010000010000001101111000010000001011111111111111100001000000001010111111100000011111110001111101101111001011111001000100101111110100010110111111000000101111111000111101001111001011101111000001101110111100001010000010001111011011111111111111111111101111111100111101101110011000001110111111011111111000000100111111111111111111111000000001010000000100000101000011001111111111100010111110100001001100000011111100001111110011101101000100000000000000010011000100001111101100000010000000111111110011110101111111111111100011111111000010000000001100000100111011101110110011111101111101110000011000001001,
111111101111001111111110000111000000001100000001111101010000110100000010111101011111001100001000111100010000110000000111111110110000100011111111000010111111000111100011111111111111001011111011111110010001110011110000001000000000000000000010111100111110110011110100000000001111011100010110111111110000011000011111111110011110011100011011111110111110110000010001000001001111101111111101000000000000110000001110000010100000010011110111111010011111100011110111111110000000000011110000000001001110010000000100000000100000010100000101000100111111000100010010111100100000000000000100000001101110100011111010000001000000011011110001111110001111011011111110000011011111010011111011,
111111110000011100000000111101111111101011111011000001100000001011111001000010110000000111111010111110001111101100001011000010111111111100000100111110101111100111110011111101011111111000000100111111001111011000000101111111110000010100000000111110100000001100001011000000110000001100000101111111000000000100000101111101101111111000000111000001101111110000000101111110100000000111111000111100100000010000001000000011011111100100000001111101000000010011111100000000100000101011111100000000010000000011111010111111001111101000000110000000101111111111111100111110010000011011111011111110001111011000000001111110001111100000000101000000100000001000001001000001001111111000000000,
000001100001000011100110000001101111110000001111000000000000010011110110000001101111010100000101000101111111110000000111111111100001101000011000111101010000010111111011111100100000101011110001000110011111111100001000111110111111101100000001000001000000010100000100111110000000100100000000000010110000010000000010000001010000011000001110111110000000010011111111000001101111110011101111000010110001111111101001111010011111110100000000111110100000011111111110000001100000100111101110000000011110001111110011000011111111110100010110000101000000010000010010111100110000010000001011000000010000100100001110000010001111001111111110111111111111100000000011000000111101111000000110,
000000001111000000000001111101000000011111111011111111000001010000011011111101111110101011101110000000000000001011111010111111010000111011111110111110110000000000000011000010001111011111110010111100010000110111110110000011000001001011111101001000100001001011110000000000011111111100000001000100111110101100011000111110101111111000001110111100010000101011110100111100101111111011111000000100111111110000001011000100011111100011111010111011110000111100000111111110101110110000001011111111100000100000001110000010111111100011111101111001000001001111011000000101101110111111100101000001100000110011110011111101100000000000000110000101010000100100000011111100011111010111110001,
000001000000001111111101000100011111001011110100000000100000100011111000111101000000110100000101111111100000100111110000000010001111101100001100000010011111100100001001000011010000100100000101000001010001000100001011111111011110111011101111000010000000100000000010111101000000110100000011000000100000110011100100000000111111011111111101111110000000001111110001111101101111111111110010111110010000010111111011111100111110110011111100000000100000011100011000111101010000110111110110111111101110110011101011000101011111110100010101111110110000111000001011000001010000000011110110111101100000011000001111000000011111110111111101111111100001000000000111000001111111110111111100,
000010001111111011110111000010100000000000001110111111100000010100001101111110001110111111111000000011110000101011110100000001010000011011111101000001000000101100000011111101101111010111111001000001101111001000000111000001100000110000010001000001010000111000001010111101111111111011111011111111110001000100000011000010101111110000010001111111110000000100000111000010100000000011101110111110101111110111110011000001011111100000000010111111010000110011111100000000001111001111110111111111110000010011111111111111101111010100001010111110001111101111111010000000000000000000001011111110101111111111111011000001000000010111110101111111000000010011111000111111111111110011111110,
000000001111010000000111000001110000001100000001111110011111110100000011000000101111011000000101111111001111110000001010111110110001000000000110111110111111100100001001111101000000100011111101000000100000100111110100111110101111111111111010111111101111111011111011111101110000100111110100000001110000011000001001000000011111010000000011111101001111110000000000111111111111101100001010000000000000101011111101111110011111111111111111111111111111111100000110111111011111111111111110000010101111001111110100111111100000011111111110111111101111110100000001111111011111011100001010000001110000010000001000111111000000101011110111111111010000001000000010000001110000000000000100,
000000000001000100001100000000011111001011111111000011000000111111111011111111010000001100001010111100100000110011101100000001001111010100000000000011101111000000000011000000000001011100000100111100000001010100000010000001100000001011110100111011001111100100000100111101000000110111110111111100010000000111111001111101110000011011111010111101101111000111111100111101001111111000000001000000010000010000001011000010010000011000000101000000101111101000000111000000000000011100000101111011111111010000000101111111011111010111101100111010011111011000001000000000110001010111111111111101111111111000000010111111101111110000000010111110011111011011110000000000010000111000001111,
000000011111011011111100111110110000001100001001111101100000101100001001000010100000110000001011000001001111101100000011111101110000001011110101000001001111010100000011000000100000011011110100111110110000001011110110000001011111100100000100000010011111111100001000111111101111101111111000111110000000011111111011000010000000010100000100111101011111111111111110111111001111100000001000000001011111011111111000111110010000001111111100000001111111111100000110111101101111101011110001000001110000000111111001000010001111011111110110111111000000010011110111111100111111110100000001000001000000000111111001111111001111011000000110000001101111011111111000111111111111110111111011,
111101001111110100001100000110010000000000000101000100000001011111110101111101011111100011111011111110100001000011110010000000011111011100001101111100111111001111110100111100010001000100000001111010100000011100000000000011000000000111111000000010010000010111101110111101010000001100010000000001100001000000010110111011010000000011111110111111100000011100001010111100011111101000000011000011010001000111111110000010100000010111110100111100001111000111111110111111111111100011111010111101011111111000001000000101001111110011111011111101100000000011111110000011110001000111111001000000110000111011101011000000101111100100001001000000001111100011111000000011011111011000000001,
000010110000000111111100000000010000010100000110000000001111100111111111111110110000100111111101000000101111100000000111111101101111111000000001000001100000011000000101111110011111101011111000000011100000000000000100111110011111100000001000000001110000001011110100111110110000010100001100111111111111110000001010000001010000010011110111000010110000010100000111111111011111101011111111000001000000011100001000111101110000010111110101111111101111101011111001111110101111111011110110111110001111010111110110000000110000100000000010111110000000101111111111111111100000101000000001111110001111111100000001000001010000101100000010111101110000001000000101000001111111001000000010,
111101100001000100001100111110101111011011111010000010010000001000000001111100111111010100000001111110111111010011110010111110110000110000000011111100100000000000000010111100110000111100000100111011100000000100000000000011001111001100010010111101100000011100001000111110010000111111110011000001000000000100001100000100101111010000011011000000000000100111110010000000001111010000000101000011010000101011111001111101011111001000010110111110011111010100000010111111101111111000010001111101010000110100000001000100111111100111110100111011010000011111111000000000000000010000001010111110001110101011111100111101101111110000000010111100010000010111111010000000000000000100000100,
111111010000111011111101000001011111001100000011000000000000001011110010111101111110111111110000000001010000010011110101111100100000000011111001000100111111100100000100111101010000101011111100111001110001010100000110111111100000000011111101111110111111100100010100000000000000110000000010111110001111100111111111000101101111011111111010000000101111001100000110111110011111000100000100111101010000010100001000000000111111111100000011000011101110010100000100111101010000000100001000111011100000011000001001111011101111011011100000000010000000010111111101111100110000000000001001111101111111001011110110111111001111111100001010111111000000110011110111111100000001100011110101,
111101011111110100001001000011001111100111111000000000110000100011111100111101011111100111101100111100000001011100000111111100011111111100000110000110101111000111111001111101101111000111110110111010110000101000001011000100001111100011111100000010101111001000000111111111100000000100001101000000010000110000000110111110111111010011111111000000111110110011111111111111011111101011111011111101100001010000010011000001110000111000001010000010000000000111111001000001110000111111110111111100111111100111110010111100001110110011110010111101000000001000001110000000000000110000001111111111001110101011110111111100001111110011110100111100001111011100000100111100110000110111111010,
000001001111001000011101111110111111100100000011000011100001010100000100111111101111111111110001000000000000111111111011000000011110100011111111000010100000010011110111000000011111111011110101111010110001010011110001111111011111111111111000000000110001100111111100111101001111110100001100111101011111110100001011000000000000010011110011000001001111101111101011111111000000001000000001000011111111111100010001000010110001001111101101000011001111101100001111111101111111100011110000111111101111100000011001111101001111111111111010111001100000100011101001111111110000111011111011111110011111011111110011111111011111011100011101000001100000110111110011111101011111000100000100,
000001001110110011101101000011010000000000010011111100111111010100000100000000110001001111110101111111001111100100000110111110010000101111110000111011001111000000010011000010010000111011111000000001011111111011101001000001010000001011110101111100011111111100011000000000111110101111111001111111100000011100001001000000000001001111101110000001000000111100001001111111011111110100000110000000011111001000010010111111000001001011110110111100111111011000001011111101111111000111111111111110111111110011111100111110111111111011110101111100101111010000000000111111010000000100000001111101110000101000001000111110101111011100000100111101011111010000000100111101001111101100010000,
111111001111010000001001111110001111011111110110111110011110111000001111000000010000001100000111000000100001010011111001111100110000100011111000000101111110110100000000111101110000101111111000000000001111101011101011111100101111001100000010111100101111011000011001000000111111111000001110000100011111100111100111000110001111011011111000111100111110111011100101000001111111000000000100000100001110111111110110000011110000111100010100000110010000101011111010111110110010000100000011111101111110111111111001000000101111001000000111000010011111010011111100111100111111111100100000111110101110101100001110111110111111010111111010111111100000101000000101111110110000011111011011,
111111011111001011100111000001101111010000011111111110000000001100001000000001110000011111110110000010101111101000000011000000100000110100010011111101011111001100001001111101011111010000000001000001011111100011101101111111010001000011110111111111001110110000001111111110111111000000000000000001111111010100000010111111101111101100000010111111111110111100011100000000000000001000010001000001111110000000010110000010000000011000000001111101011111101011101101111100110000101100010011000010100000100111110101000000001110101111111111111011111110111000000111111111110000010000000011000000010000011100001111111101001110101111101111111111001110010000000001000001000000100000001000,
111111010000111000000010000001011111111011111000000000110000110111110111111110010000001000000110111111100001001100000101111110111111110000000000000011110000000100000011000011010000101111110101000001000001010100000000000011101110101011110111000010011110110011111001111110100001010000000010000010111111101100001001111011101111000000010011000001011111101100001011111010010000110111101000111111110001010111111100111110111110010011110111000001101111101100000011111101000000010100001100111111011110111111101010000011100000000000000100111100100000101111111110000011100000111011111000111110000000010111111001000000010000001100000011111101000000001011110101000100000000011100000101,
111111001111100111111010111110011111010011111110000010101111111100010101111101101110111011100111111100110000010111111001111100000000010000001111111101111111010011111110111101100000010011111110000000111111110111101000111111000001000000000100111101000000101111110110111101010000010111110110111101111111010000000110000000100000010100001100111110011111110100010010000000011111111000000111000001001111111011111011111110011111111000010101111110011111011111110001111101110000011100010001000000100001001000001000111110011111011111111000000001110001001111111001000011000000010100000010000010000000110111110110000000111111101111111010111100010000000011101101111110010001011000001001,
111110100000010111111101000000101111011100000111000000000000000111111110000001110000010000000110000011001111101100000111111101011111011111111001000000111111010111110101000010001111010100000110111111011111110100001011111101001111110011110111111110110000100000000011000010111111111111111111000001111111011011111010000010001111011100000000000010010000010000000010111111001111100111110101111101111111111100000110111111010000001100001000000001101111011111111001111111001111110100000010000010101111010111111010111101110000001100000001111101011111101000000001111101100000110011111010111111101111100000000011111110000000011011111100000001010000011100001100000000010000001000000110,
111110100000111000001011111110111111101000001101000000111111100100001010111101000000001100000011111010100000001111111101000000100001001100010000000010011110110000001001111101010000110000000110000001100000101100000011111101100000111011111110111100001111110111111010111111111111111000000000111011100000011111111000000100010000000011110110111100000000110000001001111101001111001000001111111101010000101111110111000010000000010100001101000001001111010000000011111101100000101111111000000011101111011100000110111110011111111111111101111101000000011011110100000000010000001100000110000000001111110000000011111110101111011100001010000000000000010011111000111101110001001100000001,
000001000011100100010000000100101110111011110010000000111110101100010001000001000001010111111011000010010010001011111110000000111111001111110001000101110000100111101000111110101111101111110010000110001110100000010000000010111111010011100111111011111110011011111001111101110000001000011110000100011110101000010001111111011110010011100110000001111111100100000110111011010000110011110011110110110001000011111100111110101110110100011110111110100000100011100110111110000000001100011000000011000000110011011100111011001111111011111100000010001110111100000000111101110000000000011101000000101110110000011100111111111111110011101111000001001111101111111100111100010000111111100111,
000000001111001100001011111111110000010111110101111011011111000100000111000001000000100100000001111100111111111011110000111111111111000011110101000001000000011100010110111110110000111011111000111101110001000111111010111101110000100100001011000000100000000100010000111101101111110011110100111101101111001111111100000000110000001111110010111111001111011000000101111100010000001000000001000001000000001000010001111111011111101011111000000011111110010000010110111111110000011100001010111110110000010000000111111111111111101011011111111010010000101000001010000000000000000100010101111111101111101000001001111100111111001100000011000000100000000011111010111101100001010111110011,
000001101110100011111001000110000000001011110111000000110001010011100001111110010001011100010101111111000001001011110011000000011111011100100000000011101111111111101010111110111111100111111111000010000001110000100000000110101110010100000000000101100001000000000101111111010001000100010101000000000001101000001110110111110010101100000000000000000000101011101110111100101111010111100101000001010000011000010100000101010010011111101001000000110000011100010110000010001111000111101000001001111110100000001010000000101111011100010011000011100000000100011100111101010000110011111110000001001110101111110111000001001111111100010010111110010000110100000010111100111101111011110010,
111101111111110100000010000000001111101111111111000001111111100011111001111110010000100111111111111110000000010000000001111110000000010000000111000010000000011111110110000010000000010000000101000001011111100011111111111111011111100111111101000000110000100000000000111110101111111111111110111110101111011011111011000001010000101000000010000010101111111111111101000000101111110011111000111101111111111111111110000000000000101100000011000010101111101000000100000000111111100111111010000000100000100100000110000001101111010100000010111110111111110100000110000000100000011000000100111101010000010000000101000001001111110000001010000010011111011100001011111110000000011000001000,
111110100000000000010011111111101111100111110000111101100000100100001000000000100000010011110100000010100000100111110111000000001111001111111110111111110000110100001000000000111111110011110011000011001111111011101101000000110000010111110101111111010001010100000111000001010000001000001110111100010001010100001111111110110001110111110000111100110001010011110111111100100000000000001101111100101111111000001100000001010000010011111010111111110000111000001110111110011110101000000101000100000001010100001100111101110000010011110000111101011111110011111110000100100000001011111010000001000000101000010010111111101111101000000101000000000000111011111011000000001111001100000001,
111101011111111011111000000010101111011011110010111100010000111011110000111111000000001100001111111011001111001111111100111101010000100000000010111111101110100100001001000010100001110011111101111100000000100000001100111110011111011011101110111110101111111000000110111100000001010011110100000010111111111111111101000000100000100111111111000001000000001100001011111011001111111011110000000011010000001100000001111100111111000100001101000010100000011000000010111110111111100011110111111011101111111000001010000011110000001100010000111011110001000100000101000011010001000011111000111111100000001000001101111111101111111100010000000010000000100100000010000000011111010000001100,
111111001111000100000100111110110000010011111111111110101111001100010001111101111111111011110001000000000000000111110001111111111111100011111101000100011110101000001110000001101111001011111100000010011111100111110001000000001111100100000101000001011110111100011001111111011111100100001011111111100000000111101010000010101111000111110010111110001111010011110110000001001110111100000001111101100000010000011101000110100000010111110111000001001111101000000001111111100000111100000100111110101111000111101100000011001111000111111000000001001110101111111010000100000000101100011001000010001111010000000101111111110000011011111001000010101111100011111001111100110000101011100110,
000001011111011111110100111110011111000100001101000000100000110111111011111111111111011111110011111111011110101111111010111110000000101100001000000000101110101100001010000010000000101011111001000001111111101111111010000000000000010111110100000000111111111100000110111101111111100000000010000010101111110000000011111111010000010000001100000000101111001100001100111110011111110011111101111110011111010011110011000001101111011011111111000001100001000011111101111110110000110000000111111110011111101000000000000000001111100100001110111101100000000011111110000011010000110011111000000000110000010100000111000001111111000111111101111110100000000111111010000000101111100000001001,
111110001111010111110111111111100000011100000010000000101111101100000111111111011111000011111011111111001111101011111011111111100000001111110010111111111111010100001100000011111111101100000011000100000000000111110101111111011111011011111111000011100000101011111110111110110000101111110100000001110000001000001000000001100000001100000001000010011111100100000001000001010000011000000001000010010000100011111000111110111111101011110111000001010001001100001111000000000000101100001101000000000000001000001010000001101111111011111111000000000000000000001000000011110000011100001001111101100000001111111110111101101111100000000100000000110000000100000001000001111111100011110010,
111101010001000100011001000001111111000100000011000010110000011100000110000001000000011011110000111000010000000111111010000000111110111100000000000011101111110000001001111111010000011011110100000100011111011111111101111111000001100011101110000001100000100111101100111100100000000100001100000100001111110100000010000000000001100011111000111101100000000000000100111110000000000111110011111111111111011000001000000101010001000011111011111110110000110111110011000000011111101011110100000000110001000100010001111011110000000000000101000010110000111111101010000011100000011011101100000000010000111011111100111101101111000000010000000011000000010011111110000000000000110111110110,
000001110001110000000000000000111111100111111111111101100000001000001000111110101111000100010110000010100000000011110001111101110000011000000000000001011111111011111010000000011111100011110011000100100000111100001001000000100000010111111100111110110000100111101011111110010000010100000000000010111111101011110101000101010000010100001011000000100001000011111010111111001111111011111101111111000000011111110001111011001111000100011100000001110001010011101110000000000000011011111101000010110000010111111110111110100000001100010110000000010001000100001011111110001111100111111000111101100000011011111101111101111111100000001010000000100000111011111101111110101111011011111010,
111110000000101100000011111111101111101011111010111110101111110000001010000000000000100111101101000000000000000011110101111110111110111111101100000001110000010100010000111111110000100011110110111101011111100011110100000001110000001111110101111110010000010000010001111111110000101100000010111010110000100111110111000001100001000000000011000010000000001111110010111101001111001100000100000000010001000000011000000000100000101011111011000010101110011000001101000000011111000100000100111101100000110100001010000000100000000011100011111011100000000100000111111111010000000100001110111110111111111011111001111111101111100100000110000001110000111100000001111111000001011100000110,
111101011111101000000000000011000000101100000101111111111111111100000111111110000000010011111010000000000000000011110100000000000000101111110110111101101111011111111110111111100000101100000000111111000000100011110110111101111111100011110101111101101111110111111010000000000000110111111111000010100000101100001011111110011111100111111111000010011111101111111110000001101111111000001001000010111111110000001001000001100000000111110111000010010000000111111101111101110000011011111101000000111111111011111110000001111111111100000000111111001111100100000100000000111111111111110110000001111111011111110110111101010000001000000110111111100000100100000110000010000000000000000110,
000001110000001000010000000010010000010011110000000001011111011100011001111100010000001011111100111111000000111111111001111111100000001111111101000011011111111111111010111100011111101011110110111111011110101000001010111101000000111111110101000010101111110111110000000010010000000000001111000100011110101111110111000001110000111100001000000000101111110011110011000000000000011000000011000000001110101111110101000011110001110000010111000000100001011000000010000010001111011100001100000000000001110011111110111101010000101000010100000001111111111111100110111111001111000011110110000000101111111111111001000000101111011100001000000010011111111100000001111010010000111011111011,
111110110000011000000010000000010000100011111101000001000000000111111010111111010001001011110111000010000000010011110100111101110000001011111100000000101110110100000111111110010000111000000001000000111111111000001101000001100000010011111010111110111111011100000011111101000000101000001111000100010000011011110100111100110000000011111000111111101111010000001111111111111111011111110101111110010000101100001010000001010000101000000100000011111111110100000001111110100000001000001110000001101110111100000001000000011111000000010000000000101111101100010110000010000000111000001011000000001111101000010100111100111110111100001011111111110000000011111001000000111111110111111001,
111101001111111011111011000001000000010000000010111101010000000100000001111110011111100000000110000000111111110000000110000001101111110011111100111111011111101100001101000010001111101011111101111111010000011000000000000001011111111111111000000010001111100100000001000011001111100100000011000000000000010000000101111110110000010100001000111111000000101000000111111101101111011100000001111111000000010100000001000011001111011000001000000001111111110111111010111110001111011000001011000001000000001011111111111110100000001100000011000001000000010000000000111111010000000111111100111111111111110000000100111101111111111011111011000000000000100111111001000001011111110000000111,
111100011111110011101111000011110000110000001001111101010001100011111111000000101111010011110101111100100000100011111101111101010000101000011101000001001110100011111001111100101111101111110110000010110000001100000011000011010000011011111110111111110000110000010011111101010000001000001101000000010001111011111010111110010000101100010001111111100001101011101001000010000000000111111010000110110000110011110110111111010000101011110110111010000000100100011000111110111110111000000001000011100000100000010100000101100000001100010101111001100000001000000101000000101110100011110110111101101111001000000110111110011111101111110001111101110000110011110010111111111110011000001011,
000001110000010100001100000000011111111111111110000001100000000100000000000001000000010100001110111111101111100000001011000001001111110111111011000000000000000111110011000010101111110000000100000000011111100000010011000011001111100100000011000010000000100000000111111101100000110100001010000010100000001011101100000000110000100111111110111100111111111011110010111110110000000111110101111110110001010011111000111110011111110100001101111111111111111000000111111111011111100000001100000001101111010011111101000000000000100011111110000000101111011100000011111110110000100000000001000000100000100100000101111111011111110111111000000000101111010100000011000000011111001100000010,
111101110000001100000011000010101111010100000101000000001111010111111010111111110000001000001001000000001111100111111000000001000000000000000011000001111111111111111111000001001111111011111110111110111111110111110101000000011111101000000000000000000000011000001110111110000000101000000000111111010000000111110110000001101111101111111110111101100000001100000111111111110000010111110110000001110000000011110111000001100000100011110100000001000000101000001000111110110000100011111110000010011111010011111111111111100000101100000100000000000000100000001100000010000000011011111101000010101111100100000000111111010000101100000100000010000000000000000000000001100000011011111001,
000000110000000000001101000001101111111111110110000001001111011000000110111101110000100011111101000000100000000111111111000001111111111100000100111110101111100111111010111101100000100111111110111101101111101011111111000000011111100111111100000001001111101000000100000000011111110100000001111101010000001000001001000000100000000011110101000001011111100111111011111111000000010000001110000011000000011000001100111110111111100000000000111110100000000000000101000001100000010100000000000010100000010000001010111110011111100111110111000000000000110011110100111111100000100000000010000000101111011100000110111110111111110000001100111111101111101100000010000001011111100000000111,
000001100000000100000110000010101111010111110011111011011111010111110100000000111111101000000010000000001111000100000100111111010000100111110011000001110000010111111011000011001111111000000101111110010000100111111100111111110000010111111011111111000000101000001110111011100000011100000000111011010000010000000001000010100000010100001101111110110000100000000011111111110000000100001110000001100000111100001100000001110000110100000001000011011111011000001100000000111111011011111101111111001111110100001011000010001111011000000101111011110000010000001111000000110000010000010000111111111111111000001110000001100000000100000100111110100000010111110100111100100000101000001010,
111101010001101000000000000000011111110100000110111011011111000000001000111101110000010000001010000000010000000111111110111100110000100011111011000011001111101100000100000100101111100011111010000101101110111000001010111011110001000100000011111110000001000100001000111100011111011100000010111101010000011111100101000001100000011100000110000000110000001011100101000010101111101011111110111111111111001011101011111110100001001000010111000100100001000100001010000000000000110011100101111111010000100111111100111111100000001100001010111111010000011011111110111010111110100111111010111101100000101100000110000000011111111000010000111111001111111100000000111100001111011000000110,
111101011101101011110111111111001111110000001010111111111111110100000100000000110001000111011100111111101111011100001010000001111111000111110100111011111110111100011001111110001111101000000011000001011111100011100011000001101111100111111011000101010000100100010000000001011111110111111111000000100000110000001110000001010001101100000110111100010000111100001111111111100000011011110000000011110000101111111110111110010000011011110010000000000000101100011000111110001110100111110011111110000000010011110100111110110000001111110011111000111111101011111011000101110000001111110011111110100001111000000100000000101111101011111101000001111111110111110100111011101111001100001100,
111101110000111000010001000000001111111011111110111101101111100100001010000001001111110011111000111111100000010111111111000000010000011100001001000100111111100000000100000000001111010011110100000000110000000111110110111111000000100000001000000001011111110100001100111110011111100000001001000100111111000011101110000100000000000000001000111110100000001011111011000010101111101000001000000001010000010011111111000001010000000000001101111110100001000000001101111110000000011100000011111111000001001111110000111100000000000000000111000100101111110011111010111101001110101100001101111101000000100011111111000010100000010000000100000001000000001000000100000000000000100011101011,
111101001111110011110011111111101111101100010010000001111111010100001010000000101101011100001011000001011111101111111010111111100001001000010010111111011111100111110100111011111111100011110100111110110000000000010100111010000000000000001001000001001111010000001011111111011111101100000001111110100000011011101010000110001110101100000110000000010000011011111100111111111111100000000101000100000000011011111011000000100000110000000101000000100000011011111000000001010000100011111001111110000000011000000011111110100000001100000011000100101111110111110000111111010000001000000111000000011111100111111111111110110000011100000110000001000000011111111111111101100000100111111000,
000000101111010000000110111101001111101100001101111101110000110000001101000000101111001011110001111011110000001111110101111100110001000100001000000010011111001111111110111101011111101011111110000000110001000111110101111100010000101000000111000001100000101100001011000000111111100111110111111110111111100011111110000011111111010111111111111100100000011100000011111111001111100000001011000011011111100100000101111111100000101000001100000010001111110100001010111111011111100100000010111110011111110000000000000001101111000100001000111111100000000011101111111100111111110000001000111101011111100111110010000000100000000000001011111100001111110111110011000001110000101000000111,
111101110000011100001111111110000000011100001101111110111111000000000111000000101111101111100100111011000000001000000110111110000000100011111001000010001110011100000100111110111111011111110110111101000000110000000000000001000000100100000100111100010000110100001101111110000000110111110110111111111111110011101110000100111111011111111111111110110000001011101011111111101111110000000010000000100000011100000001000010110000010100001111000011111111100100001110000000000000101000000001111100000000011111110111000000101111101000000000000010100000010000000110000000100000010000001100111101001111001100000101111100110000011000000000111111111111110011111011111111000001000011110010,
111110110000001011110010111110011111010100001110111001000000110100001000111110111111101011111001111100011110110000000010111100000000101111110011111010001111010000000101000101100001101111111111000001011111101111110011111110000000110111110100000011000000111011110011111111110000011111111011000000000000011100001001111110101111110100010000111011110000010100000101111110101111101100001001000001001111000111101001111100110000001100001011000011010000000011111011000001001111101000001000111011010000001000010000000010011110101000000010111100100001110011110101000010001111111011100111111111110001000000000110111101011111000100001101000001110000011111110100000010001111010000001111,
111111110000110011111011000000010000000011101111000000110001001111111011111100001110111011101101111011010000001111110100111100001111100100010010000001000000011011101100111110011111110111110110111101010000011000000010000100100000110000000100000010100000010111011100111101000000101011110111111101011111011111111101111010111111010100000100111110011111101100001000111100010000010011100111111110010000010111110110000001100000000000001011000000010001011111101000111101100000010111101110000000011111100100000010000000100000000000000010000100010001001111101100111110000000101111101101111101000000100011101100111111001111100100010111000010011111111000000110111011110000000100001001,
111111011111001000011111111010111111111011101011000010100000000111111000111111111111011111110111000010010000011000000001000001111110101111101100000010000000010100000111111101010001000111110000111001100001000111111111000001100000100000000010111101000001010000001010000001000001100111101101111010111111010100001011000001011111011111110101111110010000110111110000111100011111101111110110000000101110111000011000000110011111110100000100000010111111100000001010000010000000000100000000111100100000111000010101111100011110111111100010111110000001001011101100111100100000101000000000000000011110000111101110111101011111011100011100111110110000110111110110111110110000010000001010,
111110101111010011111001000001000000010011111110000000011111101100000010000001010000110100000001111001111110111100000101000001010000100000000110111111010000000000001001111111110000001111111100111111110000011111111110000010110000110100000110111101000001001000010011111111111111101111110010111011100000110111110100000001111111110100011001111111110001000111110111000001111111111000000000000000111111001100000011111111110000010100000100111101111111111100000000111111011110111011111011000011110000001100001001111111101111001000000100111100110001001100000011111101011111011000000110111110010000110011111100111111101111000111111110000001000000110111110100111101010000011000010010,
000010011111110011111100000000101111011111111100000001001111010111111111111111000000001111110101000000110000000011111001000000110000100100001100111110100000001000001000000001111111101100000111111111000000010011111111111111010000101100001001111100101111100100000001000000110000010111110110000010100000000100000100000000000000101011111111111101110000000111111010111110111111110100000011000000111111100111111001000000100000011100001000000000101111111100000110111101110000000111111101111111011111100011111110111110110000011011111011111110000000000011110110111100100000011100001001111110001111100100001000111110010000100111111010000001110000010011111001111101111111100000001011,
111110011111000011110111111100001111011100010001111000100000011100001010111111001110000111100110111111111110001000000000111111010000011100000000000011001111001011111111000010100000000100000000000001100000010011110110110111110000011000000101000001101111011100000011111101000000001111110001000001011110111111101001000000010000100011110101111110101111001111111010111110001111010000000110111111010000010000000100000011010000001100000100000111010001001000000101000000000001111111110111111010001111100000000110000000011110111100000000000001110000111111100110111011111111101100001111111110010001011100000001111101011111111100001011111101101111100111111000111111100000011011110101,
111101101111001111111110000011111111110000001001111111110000111000000101111100010000110111111101111111001111100011111001111110110000110100001010111110110000011111111110111110100000010011111011111100000001011011100010000011000001000111101011111101101111110100000001111111101111010011110010111010011111011000011000111100000000011111111110111100101111011000010011000001111111101000001001111110010000000000001101000101100000100011110000111101001110011111101111111111000000010100000111111111111111000100001001111110110000001111101011111010111111101111111010000001010001001111111000111100001111101011101110111110111111010111111111111111001110101000000010111110110000101000010100,
000001011110011011111111000100111111001100001001000100110000100100010100000000000000101000000001111010010000101100001000111110011111101100010010000000111111101111110110000000101110010111111101000110010000100111110011000010110000110111111100000011010000110111111110000000111110101100001011111110000000010000011100111100000001100011110110000000111111001000001010000001101111110100001111111110101110011111111101000101110010100011111101111101010000110111111101000000100000000011111011000101010000101011110111111100010000100000010101000001011111010100001110111111101111000111101011111101110000011011111011000000111111010000001100111111110000011011111111111111001111010111110011,
000001100000010100000111111110000000011000000111111111111111011011111100000010111111010100000000111110001111110111111100111101100000000100000010111111101111011111111101000010101111010100001011000000001111110100000001111110111111011011111100111111110000000011110100111101111111100111111011000010101111010111111010111110000000001100000111000011000000110011111110000010100000011111111010000000011111011000000111000000001111111100001010111110110000101100000100111101101111011100000100111111001111111011111011111111101111010111110111000000110000110000001000000001011111110000001001111110000000101000001000000000110000000111111111000010010000011100000111111110000000011111110101,
111110110000101000000101000000101111001000000001111011111111111000000000111110110000100111111011000100000000000100000110111111001110110111110001111100001111010100001100000011110001000111110101000100001111010100000100000010010000111111111110000010100000010111111001111110101110111111110101000010000000001111111011111011110000111100000101000000010000010100010101111111001111010000001000111101111111010111111010000000000000001111110111000011000000100011110011111111101110011011110000000010100000001000001000111110111111000100000010111111010000000111111101000100010000111111111111111110110001100000001001111111101111111000000110111111111111100011111010111011010000001000011000,
111110011111110000000000111101000000010100001000000000010000010100010000111110111111010111111111000000101111010000000001111110110000101111111111111111111111011100000101000000101111101011111000000100010000100000000101111101110000000011111111000101011111110111111100111100110000110011111111000001100000011011111001000100011111100100001000111110101111101011111111000000001111010111110111000011001111110011111111111110011110101000001101000001010001010100001011111110000000000100001000111110010000011111111001000000110000010000010011000000100001000011101111000000101111110111110111111110100000111111111001000010000000000100000101000010010001100111101101000001001111101000000000;