MEMORY_INITIALIZATION_RADIX=2;
MEMORY_INITIALIZATION_VECTOR=
00010001000010010000101011101110111111101111001111110011000010111110000111110011,
11111001000001100000000011111011000101100000101100000110111010111110010111010111,
11100100111110110000000100000010111111111111010100001010000010111111100000000000,
00000000000000110000000011110111111111101111100011111011000010001111100011110110,
11110101000101011111001100000001111111111111011000001110000001110000100000001010,
00000100111101101111100111111110111110010000001000000001111101011111001000000101,
00010000000001011110100100000111111101101111100000001011000000110000001011110010,
00000111111010101111101111101001000000001110000000000001111100110000010000000000,
11110101111100111111101000001011000010101111110000000001000000111111010100001000,
11101100000000110001000100001100111111001111010100000000000010110000010000001110,
00010100111111110000011100000110111000101111101011110101111100001101110100000101,
11111110111110110000011111111001000000011111100111110001000001001111010011111110,
11110010000001000000110100000101000110001110100100010010111011010000000011110110,
00000101111000110001000111101110111011000000110000010001000011010000000011101101,
00000011111111010000101111011110111011100000101111111101111110111110001000000110,
11101111111001010001010111110100111000101110011111101111000000110000010111101000,
00001000000000111110100011111010111010001110111000000111000010011110101011111001,
11100100111001011111011100000110111001111110011010101011110101111110010111110010,
00000010111000111101110100001001111101011111101011101010000010001111000100011100,
11101111111110000000000100000010111111100000000111110001111111010000000000000110,
11110011111010001111111111100101111110100001000111111111000010001110101100001110,
00010101000010111110111111101110111111011111101100000011000001101111101111110001,
11110111000101101110100111111111111110000000110111101000111100111111001011110001,
11111100111101001110101011110110111111001111111011100011111011010000001011111010,
00000011000010000000011100000011000011110000110100001010000001001110010100001000,
11111110111011001110101100001111000011111110111000001111000000011111010111110111,
11111011111111011111110100000010111110000000001111111101000010001111100011111010,
11110110000001100000101111100101111101111110001000001111111101010000110100001110,
00000110111100011110000100010010111000110000000111111011111100000000001100010110,
00001011111111000000000100001111111111101110100100010000111111001110001011111100,
11101000000100101110000100010011000010101110100011111111000010101111001000000010,
00011000111111011111000000000010000011011111100111011001111000000001010111110101,
00010000111110011110110100001000000010000000110100000011111001110000000111111010,
00001100111110010000101111010100000001110000101000001100111010000000010111101010,
11011100111100110001011111110000111100101101110111111011000000100001000111101111,
00001001000001011111101111101010000001101111000100001101000010010000010000010001,
00001011000000100000010011111001000100000000101011101110111011111110110111111111,
00000010111111011110111000000100000010110000011111111011000000000000000111111001,
00001000111110001111011011110101000000111111000111110111111111011110111111111001,
00001011111101110001000011101110000010000000111011101111000010111101111111100111,
11101110001000010000110111101110111011010000000111101000000011100000101000001000,
11110000000000111111100111111011000010011111000011111100000000111111111011110001,
11101111111111101111001011101110111111100000001000000101000011011111110000010000,
00010001000001110000010111111010111011100000011111101100111011110001100100000001,
11101100000100001110001111111101000100001110001100000011111101111110111000000101,
00000111111100101110100011111111111000010001000111110111000011111110110011111000,
11011111000000000001000111101011111111001110011111011100000001010001000011111111,
00000010111110001111111100001001111101110000101000000011000000001101110100010101,
11100111111010111111111000001001111101010000100111101100111111000001010100001100,
11111000000010010000100011110010111010111111111000001101000100000000001100000011,
11111011111111011111000111110001000000000000001111111100111111101110001111101101,
11111101000001110001000111111100000100011101111000001110111010000000011000001100,
00010000000101010000001011111101111010101111100000000100111111100001001000001001,
00001011000000111110110011110000111001110000100011101000111000101110001000001011,
11101100111111001111000011110101111110101111001111110111111100001110110000000011,
00010100000010001110100100000100000001000000000011101000111101001111000111111010,
11111111111100010000010111110111111101100001001011100100000001100001011011111101,
11110111111100111111010111111010111100111110110111101111000110011111100011011101,
00000011111100011111001111101000111111111110111100010010000011000001010011110010,
11111011111001010001001100001110111011011111100011110100111100000000100000010010,
11110100111110010000101000000010111101111111101111110101111110001111011000000111,
00000111000001010000111011100010111100011111101000011000000011111110110111101111,
00000001111111110000001011101011111100111111011111110000111111101111010000010000,
00001101000001010000110100000001000001001111111100001001111000111110110000000101,
11111000111111101111010011110110111000110000101100000001111111101111101011111101,
11100101111101111111010100010001000001001111101100001011111101100001010011110010,
11110011111110011110001011111011000011000000001111101010000011010000001000000001,
11110011111110111110110011111101000100001110010111111000000010101110110000010000,
00000010000010011111101111110110000010000000100000000011111111100000000111111101,
11111000111101110000000100000000111100111111110100001100000001001111110011111010,
11101110111111011111011100001110000001010001011011101100000011000001011111111101,
11110000111100010000111111110010111011111111001111111110111100001111010000000010,
11110101111110001111000011110010111111001110110111111011000100001110010111101001,
11111110111010100001101100000011111000000001001111111001111010010001010011010100,
00000100111110111111010100000011111101011111101011111000000000110000010011110101,
00000000000000111110010000001001000010100000101011110011111100101111001000001110,
00010010111101011111011111011100111100110000111011111011000100011111110111111110,
11110111111110001111000011111100111110010001001111101001000100001111010011110101,
00001010111010010000010111110101000010101110101111110001000000101111011000010001,
11111010000001010000011111111010111110111110101011110100000001111111001000000011,
11110111111010000000101011110100000001110000111111011111000100010001011111110011,
00000101000100111111001000001101111111000001010000001001111100100001000111100010,
11100010000100000001010100010001000001010000000111111000000110111111100111011001,
00000000000011000000000011111101111101110000011100001111111110100000000011110100;